{
  "version": "1.0",
  "truncation": {
    "direction": "Right",
    "max_length": 384,
    "strategy": "LongestFirst",
    "stride": 0
  },
  "padding": {
    "strategy": {
      "Fixed": 384
    },
    "direction": "Right",
    "pad_to_multiple_of": null,
    "pad_id": 0,
    "pad_type_id": 0,
    "pad_token": "[PAD]"
  },
  "added_tokens": [
    {
      "id": 0,
      "content": "[PAD]",
      "single_word": false,
      "lstrip": false,
      "rstrip": false,
      "normalized": false,
      "special": true
    },
    {
      "id": 10,
      "content": "[UNK]",
      "single_word": false,
      "lstrip": false,
      "rstrip": false,
      "normalized": false,
      "special": true
    },
    {
      "id": 11,
      "content": "[CLS]",
      "single_word": false,
      "lstrip": false,
      "rstrip": false,
      "normalized": false,
      "special": true
    },
    {
      "id": 12,
      "content": "[SEP]",
      "single_word": false,
      "lstrip": false,
      "rstrip": false,
      "normalized": false,
      "special": true
    },
    {
      "id": 13,
      "content": "[MASK]",
      "single_word": false,
      "lstrip": false,
      "rstrip": false,
      "normalized": false,
      "special": true
    }
  ],
  "normalizer": {
    "type": "BertNormalizer",
    "clean_text": true,
    "handle_chinese_chars": true,
    "strip_accents": null,
    "lowercase": false
  },
  "pre_tokenizer": {
    "type": "BertPreTokenizer"
  },
  "post_processor": {
    "type": "TemplateProcessing",
    "single": [
      {
        "SpecialToken": {
          "id": "[CLS]",
          "type_id": 0
        }
      },
      {
        "Sequence": {
          "id": "A",
          "type_id": 0
        }
      },
      {
        "SpecialToken": {
          "id": "[SEP]",
          "type_id": 0
        }
      }
    ],
    "pair": [
      {
        "SpecialToken": {
          "id": "[CLS]",
          "type_id": 0
        }
      },
      {
        "Sequence": {
          "id": "A",
          "type_id": 0
        }
      },
      {
        "SpecialToken": {
          "id": "[SEP]",
          "type_id": 0
        }
      },
      {
        "Sequence": {
          "id": "B",
          "type_id": 1
        }
      },
      {
        "SpecialToken": {
          "id": "[SEP]",
          "type_id": 1
        }
      }
    ],
    "special_tokens": {
      "[CLS]": {
        "id": "[CLS]",
        "ids": [
          11
        ],
        "tokens": [
          "[CLS]"
        ]
      },
      "[SEP]": {
        "id": "[SEP]",
        "ids": [
          12
        ],
        "tokens": [
          "[SEP]"
        ]
      }
    }
  },
  "decoder": {
    "type": "WordPiece",
    "prefix": "##",
    "cleanup": true
  },
  "model": {
    "type": "WordPiece",
    "unk_token": "[UNK]",
    "continuing_subword_prefix": "##",
    "max_input_chars_per_word": 100,
    "vocab": {
      "[PAD]": 0,
      "[unused1]": 1,
      "[unused2]": 2,
      "[unused3]": 3,
      "[unused4]": 4,
      "[unused5]": 5,
      "[unused6]": 6,
      "[unused7]": 7,
      "[unused8]": 8,
      "[unused9]": 9,
      "[UNK]": 10,
      "[CLS]": 11,
      "[SEP]": 12,
      "[MASK]": 13,
      "!": 14,
      "\"": 15,
      "#": 16,
      "$": 17,
      "%": 18,
      "&": 19,
      "'": 20,
      "(": 21,
      ")": 22,
      "*": 23,
      "+": 24,
      ",": 25,
      "-": 26,
      ".": 27,
      "/": 28,
      "0": 29,
      "1": 30,
      "2": 31,
      "3": 32,
      "4": 33,
      "5": 34,
      "6": 35,
      "7": 36,
      "8": 37,
      "9": 38,
      ":": 39,
      ";": 40,
      "<": 41,
      "=": 42,
      ">": 43,
      "?": 44,
      "@": 45,
      "A": 46,
      "B": 47,
      "C": 48,
      "D": 49,
      "E": 50,
      "F": 51,
      "G": 52,
      "H": 53,
      "I": 54,
      "J": 55,
      "K": 56,
      "L": 57,
      "M": 58,
      "N": 59,
      "O": 60,
      "P": 61,
      "Q": 62,
      "R": 63,
      "S": 64,
      "T": 65,
      "U": 66,
      "V": 67,
      "W": 68,
      "X": 69,
      "Y": 70,
      "Z": 71,
      "[": 72,
      "\\": 73,
      "]": 74,
      "^": 75,
      "_": 76,
      "a": 77,
      "b": 78,
      "c": 79,
      "d": 80,
      "e": 81,
      "f": 82,
      "g": 83,
      "h": 84,
      "i": 85,
      "j": 86,
      "k": 87,
      "l": 88,
      "m": 89,
      "n": 90,
      "o": 91,
      "p": 92,
      "q": 93,
      "r": 94,
      "s": 95,
      "t": 96,
      "u": 97,
      "v": 98,
      "w": 99,
      "x": 100,
      "y": 101,
      "z": 102,
      "{": 103,
      "|": 104,
      "}": 105,
      "~": 106,
      "£": 107,
      "«": 108,
      "±": 109,
      "³": 110,
      "·": 111,
      "»": 112,
      "É": 113,
      "×": 114,
      "à": 115,
      "Δ": 116,
      "Σ": 117,
      "Ω": 118,
      "α": 119,
      "β": 120,
      "γ": 121,
      "δ": 122,
      "ε": 123,
      "ζ": 124,
      "η": 125,
      "θ": 126,
      "κ": 127,
      "λ": 128,
      "μ": 129,
      "π": 130,
      "ρ": 131,
      "σ": 132,
      "τ": 133,
      "φ": 134,
      "ω": 135,
      "В": 136,
      "Г": 137,
      "К": 138,
      "М": 139,
      "С": 140,
      "†": 141,
      "•": 142,
      "‧": 143,
      "‰": 144,
      "′": 145,
      "″": 146,
      "※": 147,
      "Ⅰ": 148,
      "Ⅱ": 149,
      "Ⅲ": 150,
      "←": 151,
      "→": 152,
      "∈": 153,
      "−": 154,
      "∞": 155,
      "≤": 156,
      "≥": 157,
      "⋯": 158,
      "①": 159,
      "②": 160,
      "─": 161,
      "□": 162,
      "○": 163,
      "◎": 164,
      "●": 165,
      "★": 166,
      "☆": 167,
      "、": 168,
      "。": 169,
      "〇": 170,
      "〈": 171,
      "〉": 172,
      "《": 173,
      "》": 174,
      "「": 175,
      "」": 176,
      "『": 177,
      "』": 178,
      "【": 179,
      "】": 180,
      "〔": 181,
      "〕": 182,
      "〜": 183,
      "あ": 184,
      "い": 185,
      "う": 186,
      "え": 187,
      "お": 188,
      "か": 189,
      "が": 190,
      "き": 191,
      "く": 192,
      "け": 193,
      "こ": 194,
      "さ": 195,
      "し": 196,
      "じ": 197,
      "す": 198,
      "せ": 199,
      "た": 200,
      "だ": 201,
      "ち": 202,
      "つ": 203,
      "て": 204,
      "で": 205,
      "と": 206,
      "な": 207,
      "に": 208,
      "の": 209,
      "は": 210,
      "ひ": 211,
      "ふ": 212,
      "ほ": 213,
      "ま": 214,
      "み": 215,
      "も": 216,
      "や": 217,
      "ゆ": 218,
      "よ": 219,
      "り": 220,
      "る": 221,
      "を": 222,
      "ア": 223,
      "イ": 224,
      "ウ": 225,
      "エ": 226,
      "オ": 227,
      "カ": 228,
      "ガ": 229,
      "キ": 230,
      "ク": 231,
      "コ": 232,
      "サ": 233,
      "シ": 234,
      "ジ": 235,
      "ス": 236,
      "デ": 237,
      "ト": 238,
      "ハ": 239,
      "バ": 240,
      "パ": 241,
      "フ": 242,
      "ブ": 243,
      "マ": 244,
      "ミ": 245,
      "メ": 246,
      "ラ": 247,
      "リ": 248,
      "レ": 249,
      "ロ": 250,
      "・": 251,
      "一": 252,
      "丁": 253,
      "七": 254,
      "万": 255,
      "丈": 256,
      "三": 257,
      "上": 258,
      "下": 259,
      "不": 260,
      "与": 261,
      "丐": 262,
      "丑": 263,
      "专": 264,
      "且": 265,
      "丕": 266,
      "世": 267,
      "丘": 268,
      "丙": 269,
      "业": 270,
      "丛": 271,
      "东": 272,
      "丝": 273,
      "丞": 274,
      "丟": 275,
      "丢": 276,
      "两": 277,
      "严": 278,
      "並": 279,
      "丧": 280,
      "个": 281,
      "丫": 282,
      "中": 283,
      "丰": 284,
      "串": 285,
      "临": 286,
      "丸": 287,
      "丹": 288,
      "为": 289,
      "主": 290,
      "丽": 291,
      "举": 292,
      "乂": 293,
      "乃": 294,
      "久": 295,
      "么": 296,
      "义": 297,
      "之": 298,
      "乌": 299,
      "乍": 300,
      "乎": 301,
      "乏": 302,
      "乐": 303,
      "乒": 304,
      "乓": 305,
      "乔": 306,
      "乖": 307,
      "乘": 308,
      "乙": 309,
      "九": 310,
      "乞": 311,
      "也": 312,
      "习": 313,
      "乡": 314,
      "书": 315,
      "乩": 316,
      "买": 317,
      "乱": 318,
      "乳": 319,
      "乾": 320,
      "亂": 321,
      "了": 322,
      "予": 323,
      "争": 324,
      "事": 325,
      "二": 326,
      "于": 327,
      "亏": 328,
      "云": 329,
      "互": 330,
      "五": 331,
      "井": 332,
      "亘": 333,
      "亚": 334,
      "些": 335,
      "亞": 336,
      "亟": 337,
      "亡": 338,
      "亢": 339,
      "交": 340,
      "亥": 341,
      "亦": 342,
      "产": 343,
      "亨": 344,
      "亩": 345,
      "享": 346,
      "京": 347,
      "亭": 348,
      "亮": 349,
      "亲": 350,
      "亳": 351,
      "亵": 352,
      "人": 353,
      "亿": 354,
      "什": 355,
      "仁": 356,
      "仄": 357,
      "仅": 358,
      "仆": 359,
      "仇": 360,
      "今": 361,
      "介": 362,
      "仍": 363,
      "从": 364,
      "仑": 365,
      "仓": 366,
      "仔": 367,
      "仕": 368,
      "他": 369,
      "仗": 370,
      "付": 371,
      "仙": 372,
      "代": 373,
      "令": 374,
      "以": 375,
      "仪": 376,
      "们": 377,
      "仰": 378,
      "仲": 379,
      "件": 380,
      "价": 381,
      "任": 382,
      "份": 383,
      "仿": 384,
      "企": 385,
      "伉": 386,
      "伊": 387,
      "伍": 388,
      "伎": 389,
      "伏": 390,
      "伐": 391,
      "休": 392,
      "众": 393,
      "优": 394,
      "伙": 395,
      "会": 396,
      "伞": 397,
      "伟": 398,
      "传": 399,
      "伤": 400,
      "伦": 401,
      "伪": 402,
      "伯": 403,
      "估": 404,
      "伴": 405,
      "伶": 406,
      "伸": 407,
      "伺": 408,
      "似": 409,
      "伽": 410,
      "佃": 411,
      "但": 412,
      "佈": 413,
      "位": 414,
      "低": 415,
      "住": 416,
      "佐": 417,
      "佑": 418,
      "体": 419,
      "佔": 420,
      "何": 421,
      "佗": 422,
      "佘": 423,
      "余": 424,
      "佚": 425,
      "佛": 426,
      "作": 427,
      "佞": 428,
      "佟": 429,
      "你": 430,
      "佣": 431,
      "佤": 432,
      "佥": 433,
      "佩": 434,
      "佬": 435,
      "佯": 436,
      "佰": 437,
      "佳": 438,
      "併": 439,
      "佶": 440,
      "佼": 441,
      "使": 442,
      "侃": 443,
      "侄": 444,
      "來": 445,
      "侈": 446,
      "例": 447,
      "侍": 448,
      "侏": 449,
      "侑": 450,
      "侖": 451,
      "侗": 452,
      "供": 453,
      "依": 454,
      "侠": 455,
      "侣": 456,
      "侦": 457,
      "侧": 458,
      "侨": 459,
      "侬": 460,
      "侮": 461,
      "侯": 462,
      "侵": 463,
      "侶": 464,
      "便": 465,
      "係": 466,
      "促": 467,
      "俄": 468,
      "俊": 469,
      "俏": 470,
      "俐": 471,
      "俑": 472,
      "俗": 473,
      "俘": 474,
      "俚": 475,
      "保": 476,
      "俞": 477,
      "俟": 478,
      "俠": 479,
      "信": 480,
      "俨": 481,
      "俩": 482,
      "俭": 483,
      "修": 484,
      "俯": 485,
      "俱": 486,
      "俳": 487,
      "俶": 488,
      "俸": 489,
      "俺": 490,
      "俾": 491,
      "倆": 492,
      "倉": 493,
      "個": 494,
      "倍": 495,
      "們": 496,
      "倒": 497,
      "倖": 498,
      "倘": 499,
      "候": 500,
      "倚": 501,
      "借": 502,
      "倡": 503,
      "倣": 504,
      "倦": 505,
      "倩": 506,
      "倪": 507,
      "倫": 508,
      "倬": 509,
      "倭": 510,
      "债": 511,
      "值": 512,
      "倾": 513,
      "偃": 514,
      "假": 515,
      "偈": 516,
      "偉": 517,
      "偏": 518,
      "偕": 519,
      "做": 520,
      "停": 521,
      "健": 522,
      "側": 523,
      "偵": 524,
      "偶": 525,
      "偷": 526,
      "偽": 527,
      "偿": 528,
      "傀": 529,
      "傅": 530,
      "傈": 531,
      "傍": 532,
      "傑": 533,
      "傘": 534,
      "備": 535,
      "傢": 536,
      "傣": 537,
      "储": 538,
      "催": 539,
      "傭": 540,
      "傲": 541,
      "傳": 542,
      "債": 543,
      "傷": 544,
      "傻": 545,
      "傾": 546,
      "僅": 547,
      "僉": 548,
      "像": 549,
      "僑": 550,
      "僕": 551,
      "僖": 552,
      "僚": 553,
      "僧": 554,
      "僭": 555,
      "僮": 556,
      "僱": 557,
      "僳": 558,
      "僵": 559,
      "價": 560,
      "僻": 561,
      "儀": 562,
      "儁": 563,
      "儂": 564,
      "億": 565,
      "儉": 566,
      "儋": 567,
      "儒": 568,
      "儘": 569,
      "償": 570,
      "儡": 571,
      "優": 572,
      "儲": 573,
      "儷": 574,
      "儼": 575,
      "儿": 576,
      "兀": 577,
      "允": 578,
      "元": 579,
      "兄": 580,
      "充": 581,
      "兆": 582,
      "兇": 583,
      "先": 584,
      "光": 585,
      "克": 586,
      "兌": 587,
      "免": 588,
      "兑": 589,
      "兒": 590,
      "兔": 591,
      "兖": 592,
      "兗": 593,
      "党": 594,
      "兜": 595,
      "入": 596,
      "內": 597,
      "全": 598,
      "兩": 599,
      "八": 600,
      "公": 601,
      "六": 602,
      "兮": 603,
      "兰": 604,
      "共": 605,
      "关": 606,
      "兴": 607,
      "兵": 608,
      "其": 609,
      "具": 610,
      "典": 611,
      "兹": 612,
      "养": 613,
      "兼": 614,
      "兽": 615,
      "冀": 616,
      "内": 617,
      "冇": 618,
      "冈": 619,
      "冉": 620,
      "冊": 621,
      "册": 622,
      "再": 623,
      "冑": 624,
      "冒": 625,
      "冕": 626,
      "冗": 627,
      "写": 628,
      "军": 629,
      "农": 630,
      "冠": 631,
      "冢": 632,
      "冤": 633,
      "冥": 634,
      "冪": 635,
      "冬": 636,
      "冯": 637,
      "冰": 638,
      "冲": 639,
      "决": 640,
      "况": 641,
      "冶": 642,
      "冷": 643,
      "冻": 644,
      "冼": 645,
      "净": 646,
      "凄": 647,
      "准": 648,
      "凉": 649,
      "凋": 650,
      "凌": 651,
      "凍": 652,
      "减": 653,
      "凑": 654,
      "凜": 655,
      "凝": 656,
      "几": 657,
      "凡": 658,
      "凤": 659,
      "凭": 660,
      "凯": 661,
      "凰": 662,
      "凱": 663,
      "凳": 664,
      "凶": 665,
      "凸": 666,
      "凹": 667,
      "出": 668,
      "击": 669,
      "函": 670,
      "凿": 671,
      "刀": 672,
      "刁": 673,
      "刃": 674,
      "分": 675,
      "切": 676,
      "刈": 677,
      "刊": 678,
      "刎": 679,
      "刑": 680,
      "划": 681,
      "列": 682,
      "刘": 683,
      "则": 684,
      "刚": 685,
      "创": 686,
      "初": 687,
      "删": 688,
      "判": 689,
      "別": 690,
      "利": 691,
      "刪": 692,
      "别": 693,
      "刮": 694,
      "到": 695,
      "制": 696,
      "刷": 697,
      "券": 698,
      "刹": 699,
      "刺": 700,
      "刻": 701,
      "剂": 702,
      "剃": 703,
      "則": 704,
      "削": 705,
      "剋": 706,
      "剌": 707,
      "前": 708,
      "剎": 709,
      "剑": 710,
      "剔": 711,
      "剖": 712,
      "剛": 713,
      "剝": 714,
      "剥": 715,
      "剧": 716,
      "剩": 717,
      "剪": 718,
      "副": 719,
      "割": 720,
      "創": 721,
      "剷": 722,
      "剽": 723,
      "剿": 724,
      "劃": 725,
      "劇": 726,
      "劈": 727,
      "劉": 728,
      "劍": 729,
      "劑": 730,
      "力": 731,
      "劝": 732,
      "办": 733,
      "功": 734,
      "加": 735,
      "务": 736,
      "劣": 737,
      "动": 738,
      "助": 739,
      "努": 740,
      "劫": 741,
      "劭": 742,
      "励": 743,
      "劲": 744,
      "劳": 745,
      "劾": 746,
      "势": 747,
      "勁": 748,
      "勃": 749,
      "勅": 750,
      "勇": 751,
      "勉": 752,
      "勋": 753,
      "勐": 754,
      "勒": 755,
      "動": 756,
      "勖": 757,
      "勗": 758,
      "勘": 759,
      "務": 760,
      "勛": 761,
      "勝": 762,
      "勞": 763,
      "募": 764,
      "勢": 765,
      "勤": 766,
      "勲": 767,
      "勳": 768,
      "勵": 769,
      "勸": 770,
      "勺": 771,
      "勻": 772,
      "勾": 773,
      "勿": 774,
      "匀": 775,
      "包": 776,
      "匆": 777,
      "匈": 778,
      "匍": 779,
      "匐": 780,
      "匕": 781,
      "化": 782,
      "北": 783,
      "匙": 784,
      "匝": 785,
      "匠": 786,
      "匡": 787,
      "匣": 788,
      "匪": 789,
      "匮": 790,
      "匯": 791,
      "匱": 792,
      "匹": 793,
      "区": 794,
      "医": 795,
      "匾": 796,
      "匿": 797,
      "區": 798,
      "十": 799,
      "千": 800,
      "卅": 801,
      "升": 802,
      "午": 803,
      "卉": 804,
      "半": 805,
      "华": 806,
      "协": 807,
      "卑": 808,
      "卒": 809,
      "卓": 810,
      "協": 811,
      "单": 812,
      "卖": 813,
      "南": 814,
      "博": 815,
      "卜": 816,
      "卞": 817,
      "占": 818,
      "卡": 819,
      "卢": 820,
      "卤": 821,
      "卦": 822,
      "卧": 823,
      "卫": 824,
      "卯": 825,
      "印": 826,
      "危": 827,
      "即": 828,
      "却": 829,
      "卵": 830,
      "卷": 831,
      "卸": 832,
      "卻": 833,
      "卿": 834,
      "厂": 835,
      "厄": 836,
      "厅": 837,
      "历": 838,
      "厉": 839,
      "压": 840,
      "厌": 841,
      "厕": 842,
      "厘": 843,
      "厚": 844,
      "厝": 845,
      "原": 846,
      "厢": 847,
      "厥": 848,
      "厦": 849,
      "厨": 850,
      "厩": 851,
      "厭": 852,
      "厲": 853,
      "去": 854,
      "县": 855,
      "参": 856,
      "參": 857,
      "又": 858,
      "叉": 859,
      "及": 860,
      "友": 861,
      "双": 862,
      "反": 863,
      "发": 864,
      "叔": 865,
      "取": 866,
      "受": 867,
      "变": 868,
      "叙": 869,
      "叛": 870,
      "叟": 871,
      "叠": 872,
      "叡": 873,
      "叢": 874,
      "口": 875,
      "古": 876,
      "句": 877,
      "另": 878,
      "叩": 879,
      "只": 880,
      "叫": 881,
      "召": 882,
      "叭": 883,
      "叮": 884,
      "可": 885,
      "台": 886,
      "叱": 887,
      "史": 888,
      "右": 889,
      "叶": 890,
      "号": 891,
      "司": 892,
      "叹": 893,
      "叻": 894,
      "吁": 895,
      "吃": 896,
      "各": 897,
      "合": 898,
      "吉": 899,
      "吊": 900,
      "吋": 901,
      "同": 902,
      "名": 903,
      "后": 904,
      "吏": 905,
      "吐": 906,
      "向": 907,
      "吒": 908,
      "吓": 909,
      "吕": 910,
      "吗": 911,
      "君": 912,
      "吝": 913,
      "吞": 914,
      "吟": 915,
      "吠": 916,
      "吡": 917,
      "否": 918,
      "吧": 919,
      "吨": 920,
      "吩": 921,
      "含": 922,
      "听": 923,
      "启": 924,
      "吳": 925,
      "吴": 926,
      "吵": 927,
      "吶": 928,
      "吸": 929,
      "吹": 930,
      "吻": 931,
      "吼": 932,
      "吾": 933,
      "呀": 934,
      "呂": 935,
      "呆": 936,
      "呈": 937,
      "告": 938,
      "呋": 939,
      "呎": 940,
      "呐": 941,
      "呕": 942,
      "员": 943,
      "呢": 944,
      "呤": 945,
      "周": 946,
      "味": 947,
      "呵": 948,
      "呼": 949,
      "命": 950,
      "咀": 951,
      "咁": 952,
      "咄": 953,
      "咆": 954,
      "和": 955,
      "咎": 956,
      "咏": 957,
      "咐": 958,
      "咒": 959,
      "咕": 960,
      "咖": 961,
      "咤": 962,
      "咨": 963,
      "咪": 964,
      "咫": 965,
      "咬": 966,
      "咯": 967,
      "咱": 968,
      "咲": 969,
      "咳": 970,
      "咸": 971,
      "咽": 972,
      "哀": 973,
      "品": 974,
      "哄": 975,
      "哆": 976,
      "哇": 977,
      "哈": 978,
      "哉": 979,
      "响": 980,
      "哑": 981,
      "哗": 982,
      "員": 983,
      "哥": 984,
      "哦": 985,
      "哨": 986,
      "哩": 987,
      "哪": 988,
      "哭": 989,
      "哮": 990,
      "哲": 991,
      "哺": 992,
      "哼": 993,
      "唁": 994,
      "唆": 995,
      "唇": 996,
      "唐": 997,
      "唑": 998,
      "唔": 999,
      "唤": 1000,
      "售": 1001,
      "唯": 1002,
      "唱": 1003,
      "唸": 1004,
      "唾": 1005,
      "啄": 1006,
      "商": 1007,
      "啉": 1008,
      "啊": 1009,
      "問": 1010,
      "啓": 1011,
      "啜": 1012,
      "啞": 1013,
      "啟": 1014,
      "啡": 1015,
      "啤": 1016,
      "啦": 1017,
      "啮": 1018,
      "啶": 1019,
      "啸": 1020,
      "啼": 1021,
      "喀": 1022,
      "喂": 1023,
      "喃": 1024,
      "善": 1025,
      "喆": 1026,
      "喇": 1027,
      "喉": 1028,
      "喊": 1029,
      "喔": 1030,
      "喘": 1031,
      "喙": 1032,
      "喚": 1033,
      "喜": 1034,
      "喝": 1035,
      "喧": 1036,
      "喪": 1037,
      "喫": 1038,
      "喬": 1039,
      "單": 1040,
      "喱": 1041,
      "喵": 1042,
      "喷": 1043,
      "喻": 1044,
      "嗅": 1045,
      "嗎": 1046,
      "嗓": 1047,
      "嗚": 1048,
      "嗜": 1049,
      "嗣": 1050,
      "嗪": 1051,
      "嗽": 1052,
      "嘅": 1053,
      "嘆": 1054,
      "嘉": 1055,
      "嘌": 1056,
      "嘎": 1057,
      "嘔": 1058,
      "嘗": 1059,
      "嘛": 1060,
      "嘧": 1061,
      "嘩": 1062,
      "嘯": 1063,
      "嘱": 1064,
      "嘲": 1065,
      "嘴": 1066,
      "嘶": 1067,
      "嘻": 1068,
      "噁": 1069,
      "器": 1070,
      "噩": 1071,
      "噪": 1072,
      "噬": 1073,
      "噴": 1074,
      "噶": 1075,
      "噸": 1076,
      "噹": 1077,
      "噻": 1078,
      "嚇": 1079,
      "嚎": 1080,
      "嚕": 1081,
      "嚣": 1082,
      "嚮": 1083,
      "嚴": 1084,
      "嚼": 1085,
      "囂": 1086,
      "囉": 1087,
      "囊": 1088,
      "囍": 1089,
      "囑": 1090,
      "囚": 1091,
      "四": 1092,
      "回": 1093,
      "因": 1094,
      "团": 1095,
      "囤": 1096,
      "囪": 1097,
      "园": 1098,
      "困": 1099,
      "囱": 1100,
      "围": 1101,
      "固": 1102,
      "国": 1103,
      "图": 1104,
      "圃": 1105,
      "圆": 1106,
      "圈": 1107,
      "國": 1108,
      "圍": 1109,
      "園": 1110,
      "圓": 1111,
      "圖": 1112,
      "團": 1113,
      "圜": 1114,
      "土": 1115,
      "圣": 1116,
      "在": 1117,
      "圩": 1118,
      "圭": 1119,
      "地": 1120,
      "圳": 1121,
      "场": 1122,
      "圻": 1123,
      "圾": 1124,
      "址": 1125,
      "坂": 1126,
      "均": 1127,
      "坊": 1128,
      "坍": 1129,
      "坎": 1130,
      "坏": 1131,
      "坐": 1132,
      "坑": 1133,
      "块": 1134,
      "坚": 1135,
      "坛": 1136,
      "坝": 1137,
      "坞": 1138,
      "坟": 1139,
      "坠": 1140,
      "坡": 1141,
      "坤": 1142,
      "坦": 1143,
      "坨": 1144,
      "坪": 1145,
      "坳": 1146,
      "坵": 1147,
      "坷": 1148,
      "垂": 1149,
      "垃": 1150,
      "垄": 1151,
      "型": 1152,
      "垒": 1153,
      "垛": 1154,
      "垠": 1155,
      "垢": 1156,
      "垣": 1157,
      "垦": 1158,
      "垩": 1159,
      "垫": 1160,
      "垭": 1161,
      "垮": 1162,
      "埃": 1163,
      "埋": 1164,
      "城": 1165,
      "埔": 1166,
      "埕": 1167,
      "埗": 1168,
      "域": 1169,
      "埠": 1170,
      "埤": 1171,
      "埭": 1172,
      "執": 1173,
      "培": 1174,
      "基": 1175,
      "埼": 1176,
      "堀": 1177,
      "堂": 1178,
      "堃": 1179,
      "堅": 1180,
      "堆": 1181,
      "堇": 1182,
      "堊": 1183,
      "堕": 1184,
      "堡": 1185,
      "堤": 1186,
      "堪": 1187,
      "堯": 1188,
      "堰": 1189,
      "報": 1190,
      "場": 1191,
      "堵": 1192,
      "堺": 1193,
      "塊": 1194,
      "塌": 1195,
      "塑": 1196,
      "塔": 1197,
      "塗": 1198,
      "塘": 1199,
      "塚": 1200,
      "塞": 1201,
      "塢": 1202,
      "填": 1203,
      "塬": 1204,
      "塭": 1205,
      "塵": 1206,
      "塹": 1207,
      "塾": 1208,
      "墀": 1209,
      "境": 1210,
      "墅": 1211,
      "墉": 1212,
      "墊": 1213,
      "墓": 1214,
      "増": 1215,
      "墘": 1216,
      "墙": 1217,
      "墜": 1218,
      "增": 1219,
      "墟": 1220,
      "墨": 1221,
      "墩": 1222,
      "墮": 1223,
      "墳": 1224,
      "墾": 1225,
      "壁": 1226,
      "壇": 1227,
      "壑": 1228,
      "壓": 1229,
      "壕": 1230,
      "壘": 1231,
      "壞": 1232,
      "壟": 1233,
      "壠": 1234,
      "壢": 1235,
      "壤": 1236,
      "壩": 1237,
      "士": 1238,
      "壬": 1239,
      "壮": 1240,
      "壯": 1241,
      "声": 1242,
      "壳": 1243,
      "壶": 1244,
      "壹": 1245,
      "壺": 1246,
      "壽": 1247,
      "处": 1248,
      "备": 1249,
      "复": 1250,
      "夏": 1251,
      "夔": 1252,
      "夕": 1253,
      "外": 1254,
      "夙": 1255,
      "多": 1256,
      "夜": 1257,
      "够": 1258,
      "夠": 1259,
      "夢": 1260,
      "夥": 1261,
      "大": 1262,
      "天": 1263,
      "太": 1264,
      "夫": 1265,
      "夭": 1266,
      "央": 1267,
      "夯": 1268,
      "失": 1269,
      "头": 1270,
      "夷": 1271,
      "夸": 1272,
      "夹": 1273,
      "夺": 1274,
      "夾": 1275,
      "奄": 1276,
      "奇": 1277,
      "奈": 1278,
      "奉": 1279,
      "奋": 1280,
      "奎": 1281,
      "奏": 1282,
      "奐": 1283,
      "契": 1284,
      "奔": 1285,
      "奕": 1286,
      "奖": 1287,
      "套": 1288,
      "奘": 1289,
      "奚": 1290,
      "奠": 1291,
      "奢": 1292,
      "奥": 1293,
      "奧": 1294,
      "奪": 1295,
      "奬": 1296,
      "奭": 1297,
      "奮": 1298,
      "女": 1299,
      "奴": 1300,
      "奶": 1301,
      "奸": 1302,
      "她": 1303,
      "好": 1304,
      "如": 1305,
      "妃": 1306,
      "妄": 1307,
      "妆": 1308,
      "妇": 1309,
      "妈": 1310,
      "妊": 1311,
      "妍": 1312,
      "妒": 1313,
      "妓": 1314,
      "妖": 1315,
      "妙": 1316,
      "妝": 1317,
      "妞": 1318,
      "妤": 1319,
      "妥": 1320,
      "妨": 1321,
      "妮": 1322,
      "妲": 1323,
      "妳": 1324,
      "妹": 1325,
      "妻": 1326,
      "妾": 1327,
      "姆": 1328,
      "姊": 1329,
      "始": 1330,
      "姐": 1331,
      "姑": 1332,
      "姓": 1333,
      "委": 1334,
      "姚": 1335,
      "姜": 1336,
      "姥": 1337,
      "姦": 1338,
      "姨": 1339,
      "姪": 1340,
      "姫": 1341,
      "姬": 1342,
      "姻": 1343,
      "姿": 1344,
      "威": 1345,
      "娃": 1346,
      "娄": 1347,
      "娅": 1348,
      "娇": 1349,
      "娑": 1350,
      "娘": 1351,
      "娛": 1352,
      "娜": 1353,
      "娟": 1354,
      "娠": 1355,
      "娣": 1356,
      "娥": 1357,
      "娩": 1358,
      "娱": 1359,
      "娴": 1360,
      "娶": 1361,
      "娼": 1362,
      "婁": 1363,
      "婆": 1364,
      "婉": 1365,
      "婕": 1366,
      "婚": 1367,
      "婢": 1368,
      "婦": 1369,
      "婪": 1370,
      "婭": 1371,
      "婴": 1372,
      "婷": 1373,
      "婺": 1374,
      "婿": 1375,
      "媒": 1376,
      "媚": 1377,
      "媛": 1378,
      "媲": 1379,
      "媳": 1380,
      "媽": 1381,
      "嫁": 1382,
      "嫂": 1383,
      "嫉": 1384,
      "嫌": 1385,
      "嫔": 1386,
      "嫖": 1387,
      "嫡": 1388,
      "嫣": 1389,
      "嫦": 1390,
      "嫩": 1391,
      "嫻": 1392,
      "嬅": 1393,
      "嬉": 1394,
      "嬌": 1395,
      "嬤": 1396,
      "嬪": 1397,
      "嬰": 1398,
      "嬴": 1399,
      "孀": 1400,
      "子": 1401,
      "孔": 1402,
      "孕": 1403,
      "孖": 1404,
      "字": 1405,
      "存": 1406,
      "孙": 1407,
      "孚": 1408,
      "孛": 1409,
      "孜": 1410,
      "孝": 1411,
      "孟": 1412,
      "孢": 1413,
      "季": 1414,
      "孤": 1415,
      "学": 1416,
      "孩": 1417,
      "孫": 1418,
      "孰": 1419,
      "孵": 1420,
      "學": 1421,
      "孺": 1422,
      "孽": 1423,
      "宁": 1424,
      "它": 1425,
      "宅": 1426,
      "宇": 1427,
      "守": 1428,
      "安": 1429,
      "宋": 1430,
      "完": 1431,
      "宏": 1432,
      "宓": 1433,
      "宕": 1434,
      "宗": 1435,
      "官": 1436,
      "宙": 1437,
      "定": 1438,
      "宛": 1439,
      "宜": 1440,
      "宝": 1441,
      "实": 1442,
      "宠": 1443,
      "审": 1444,
      "客": 1445,
      "宣": 1446,
      "室": 1447,
      "宥": 1448,
      "宦": 1449,
      "宪": 1450,
      "宫": 1451,
      "宮": 1452,
      "宰": 1453,
      "害": 1454,
      "宴": 1455,
      "宵": 1456,
      "家": 1457,
      "宸": 1458,
      "容": 1459,
      "宽": 1460,
      "宾": 1461,
      "宿": 1462,
      "寂": 1463,
      "寄": 1464,
      "寅": 1465,
      "密": 1466,
      "寇": 1467,
      "富": 1468,
      "寐": 1469,
      "寒": 1470,
      "寓": 1471,
      "寛": 1472,
      "寝": 1473,
      "寞": 1474,
      "察": 1475,
      "寡": 1476,
      "寢": 1477,
      "寥": 1478,
      "實": 1479,
      "寧": 1480,
      "寨": 1481,
      "審": 1482,
      "寫": 1483,
      "寬": 1484,
      "寮": 1485,
      "寰": 1486,
      "寵": 1487,
      "寶": 1488,
      "寸": 1489,
      "对": 1490,
      "寺": 1491,
      "寻": 1492,
      "导": 1493,
      "寿": 1494,
      "封": 1495,
      "専": 1496,
      "射": 1497,
      "将": 1498,
      "將": 1499,
      "專": 1500,
      "尉": 1501,
      "尊": 1502,
      "尋": 1503,
      "對": 1504,
      "導": 1505,
      "小": 1506,
      "少": 1507,
      "尔": 1508,
      "尕": 1509,
      "尖": 1510,
      "尘": 1511,
      "尚": 1512,
      "尝": 1513,
      "尤": 1514,
      "尧": 1515,
      "尬": 1516,
      "就": 1517,
      "尴": 1518,
      "尷": 1519,
      "尸": 1520,
      "尹": 1521,
      "尺": 1522,
      "尻": 1523,
      "尼": 1524,
      "尽": 1525,
      "尾": 1526,
      "尿": 1527,
      "局": 1528,
      "屁": 1529,
      "层": 1530,
      "居": 1531,
      "屆": 1532,
      "屈": 1533,
      "届": 1534,
      "屋": 1535,
      "屍": 1536,
      "屎": 1537,
      "屏": 1538,
      "屑": 1539,
      "展": 1540,
      "属": 1541,
      "屠": 1542,
      "屡": 1543,
      "屢": 1544,
      "層": 1545,
      "履": 1546,
      "屬": 1547,
      "屯": 1548,
      "山": 1549,
      "屹": 1550,
      "屿": 1551,
      "岁": 1552,
      "岂": 1553,
      "岌": 1554,
      "岐": 1555,
      "岑": 1556,
      "岔": 1557,
      "岖": 1558,
      "岗": 1559,
      "岘": 1560,
      "岙": 1561,
      "岚": 1562,
      "岛": 1563,
      "岡": 1564,
      "岩": 1565,
      "岫": 1566,
      "岬": 1567,
      "岭": 1568,
      "岱": 1569,
      "岳": 1570,
      "岷": 1571,
      "岸": 1572,
      "峇": 1573,
      "峒": 1574,
      "峙": 1575,
      "峠": 1576,
      "峡": 1577,
      "峦": 1578,
      "峨": 1579,
      "峪": 1580,
      "峭": 1581,
      "峯": 1582,
      "峰": 1583,
      "峴": 1584,
      "島": 1585,
      "峻": 1586,
      "峽": 1587,
      "崁": 1588,
      "崇": 1589,
      "崎": 1590,
      "崑": 1591,
      "崔": 1592,
      "崖": 1593,
      "崗": 1594,
      "崙": 1595,
      "崛": 1596,
      "崧": 1597,
      "崩": 1598,
      "崭": 1599,
      "崴": 1600,
      "嵇": 1601,
      "嵊": 1602,
      "嵋": 1603,
      "嵌": 1604,
      "嵐": 1605,
      "嵩": 1606,
      "嵯": 1607,
      "嶄": 1608,
      "嶇": 1609,
      "嶋": 1610,
      "嶠": 1611,
      "嶷": 1612,
      "嶺": 1613,
      "嶼": 1614,
      "嶽": 1615,
      "巅": 1616,
      "巍": 1617,
      "巒": 1618,
      "巔": 1619,
      "巖": 1620,
      "川": 1621,
      "州": 1622,
      "巡": 1623,
      "巢": 1624,
      "工": 1625,
      "左": 1626,
      "巧": 1627,
      "巨": 1628,
      "巩": 1629,
      "巫": 1630,
      "差": 1631,
      "己": 1632,
      "已": 1633,
      "巳": 1634,
      "巴": 1635,
      "巷": 1636,
      "巻": 1637,
      "巽": 1638,
      "巾": 1639,
      "币": 1640,
      "市": 1641,
      "布": 1642,
      "帅": 1643,
      "帆": 1644,
      "师": 1645,
      "希": 1646,
      "帐": 1647,
      "帑": 1648,
      "帕": 1649,
      "帖": 1650,
      "帘": 1651,
      "帚": 1652,
      "帛": 1653,
      "帜": 1654,
      "帝": 1655,
      "帥": 1656,
      "带": 1657,
      "帧": 1658,
      "師": 1659,
      "席": 1660,
      "帮": 1661,
      "帳": 1662,
      "帶": 1663,
      "帷": 1664,
      "常": 1665,
      "帽": 1666,
      "幀": 1667,
      "幂": 1668,
      "幅": 1669,
      "幌": 1670,
      "幔": 1671,
      "幕": 1672,
      "幟": 1673,
      "幡": 1674,
      "幢": 1675,
      "幣": 1676,
      "幫": 1677,
      "干": 1678,
      "平": 1679,
      "年": 1680,
      "并": 1681,
      "幸": 1682,
      "幹": 1683,
      "幺": 1684,
      "幻": 1685,
      "幼": 1686,
      "幽": 1687,
      "幾": 1688,
      "广": 1689,
      "庄": 1690,
      "庆": 1691,
      "庇": 1692,
      "床": 1693,
      "序": 1694,
      "庐": 1695,
      "库": 1696,
      "应": 1697,
      "底": 1698,
      "店": 1699,
      "庙": 1700,
      "庚": 1701,
      "府": 1702,
      "庞": 1703,
      "废": 1704,
      "庠": 1705,
      "度": 1706,
      "座": 1707,
      "庫": 1708,
      "庭": 1709,
      "庵": 1710,
      "庶": 1711,
      "康": 1712,
      "庸": 1713,
      "庾": 1714,
      "廁": 1715,
      "廂": 1716,
      "廈": 1717,
      "廉": 1718,
      "廊": 1719,
      "廍": 1720,
      "廓": 1721,
      "廖": 1722,
      "廚": 1723,
      "廟": 1724,
      "廠": 1725,
      "廢": 1726,
      "廣": 1727,
      "廬": 1728,
      "廳": 1729,
      "延": 1730,
      "廷": 1731,
      "建": 1732,
      "廿": 1733,
      "开": 1734,
      "弁": 1735,
      "异": 1736,
      "弃": 1737,
      "弄": 1738,
      "弈": 1739,
      "弊": 1740,
      "弋": 1741,
      "式": 1742,
      "弑": 1743,
      "弒": 1744,
      "弓": 1745,
      "弔": 1746,
      "引": 1747,
      "弗": 1748,
      "弘": 1749,
      "弛": 1750,
      "弟": 1751,
      "张": 1752,
      "弥": 1753,
      "弦": 1754,
      "弧": 1755,
      "弩": 1756,
      "弭": 1757,
      "弯": 1758,
      "弱": 1759,
      "張": 1760,
      "強": 1761,
      "弹": 1762,
      "强": 1763,
      "弼": 1764,
      "彈": 1765,
      "彊": 1766,
      "彌": 1767,
      "彎": 1768,
      "归": 1769,
      "当": 1770,
      "录": 1771,
      "彗": 1772,
      "彙": 1773,
      "彝": 1774,
      "形": 1775,
      "彤": 1776,
      "彥": 1777,
      "彦": 1778,
      "彧": 1779,
      "彩": 1780,
      "彪": 1781,
      "彬": 1782,
      "彭": 1783,
      "彰": 1784,
      "影": 1785,
      "彷": 1786,
      "役": 1787,
      "彻": 1788,
      "彼": 1789,
      "彿": 1790,
      "往": 1791,
      "征": 1792,
      "径": 1793,
      "待": 1794,
      "徇": 1795,
      "很": 1796,
      "徊": 1797,
      "律": 1798,
      "後": 1799,
      "徐": 1800,
      "徑": 1801,
      "徒": 1802,
      "得": 1803,
      "徘": 1804,
      "徙": 1805,
      "從": 1806,
      "徠": 1807,
      "御": 1808,
      "復": 1809,
      "循": 1810,
      "徭": 1811,
      "微": 1812,
      "徳": 1813,
      "徵": 1814,
      "德": 1815,
      "徹": 1816,
      "徽": 1817,
      "心": 1818,
      "必": 1819,
      "忆": 1820,
      "忌": 1821,
      "忍": 1822,
      "忏": 1823,
      "忒": 1824,
      "志": 1825,
      "忘": 1826,
      "忙": 1827,
      "忠": 1828,
      "忤": 1829,
      "忧": 1830,
      "快": 1831,
      "忱": 1832,
      "念": 1833,
      "忻": 1834,
      "忽": 1835,
      "忿": 1836,
      "怀": 1837,
      "态": 1838,
      "怎": 1839,
      "怒": 1840,
      "怕": 1841,
      "怖": 1842,
      "怛": 1843,
      "怜": 1844,
      "思": 1845,
      "怠": 1846,
      "怡": 1847,
      "急": 1848,
      "性": 1849,
      "怨": 1850,
      "怪": 1851,
      "怯": 1852,
      "总": 1853,
      "恂": 1854,
      "恃": 1855,
      "恆": 1856,
      "恋": 1857,
      "恍": 1858,
      "恐": 1859,
      "恒": 1860,
      "恕": 1861,
      "恙": 1862,
      "恢": 1863,
      "恣": 1864,
      "恤": 1865,
      "恥": 1866,
      "恨": 1867,
      "恩": 1868,
      "恪": 1869,
      "恬": 1870,
      "恭": 1871,
      "息": 1872,
      "恰": 1873,
      "恳": 1874,
      "恵": 1875,
      "恶": 1876,
      "恺": 1877,
      "恼": 1878,
      "恽": 1879,
      "恿": 1880,
      "悄": 1881,
      "悅": 1882,
      "悉": 1883,
      "悌": 1884,
      "悍": 1885,
      "悔": 1886,
      "悖": 1887,
      "悚": 1888,
      "悟": 1889,
      "悠": 1890,
      "患": 1891,
      "悦": 1892,
      "您": 1893,
      "悬": 1894,
      "悯": 1895,
      "悲": 1896,
      "悶": 1897,
      "悸": 1898,
      "悼": 1899,
      "情": 1900,
      "惇": 1901,
      "惊": 1902,
      "惑": 1903,
      "惕": 1904,
      "惜": 1905,
      "惟": 1906,
      "惠": 1907,
      "惡": 1908,
      "惣": 1909,
      "惧": 1910,
      "惨": 1911,
      "惩": 1912,
      "惮": 1913,
      "惯": 1914,
      "惰": 1915,
      "惱": 1916,
      "想": 1917,
      "惶": 1918,
      "惹": 1919,
      "惺": 1920,
      "愁": 1921,
      "愈": 1922,
      "愉": 1923,
      "愍": 1924,
      "意": 1925,
      "愕": 1926,
      "愚": 1927,
      "愛": 1928,
      "感": 1929,
      "愤": 1930,
      "愧": 1931,
      "愫": 1932,
      "愷": 1933,
      "愿": 1934,
      "慄": 1935,
      "慈": 1936,
      "態": 1937,
      "慌": 1938,
      "慎": 1939,
      "慑": 1940,
      "慕": 1941,
      "慘": 1942,
      "慚": 1943,
      "慟": 1944,
      "慢": 1945,
      "慣": 1946,
      "慧": 1947,
      "慨": 1948,
      "慮": 1949,
      "慰": 1950,
      "慶": 1951,
      "慷": 1952,
      "慾": 1953,
      "憂": 1954,
      "憎": 1955,
      "憐": 1956,
      "憑": 1957,
      "憚": 1958,
      "憤": 1959,
      "憧": 1960,
      "憨": 1961,
      "憩": 1962,
      "憫": 1963,
      "憬": 1964,
      "憲": 1965,
      "憶": 1966,
      "憾": 1967,
      "懂": 1968,
      "懇": 1969,
      "懈": 1970,
      "應": 1971,
      "懋": 1972,
      "懒": 1973,
      "懦": 1974,
      "懲": 1975,
      "懶": 1976,
      "懷": 1977,
      "懸": 1978,
      "懺": 1979,
      "懼": 1980,
      "懿": 1981,
      "戀": 1982,
      "戈": 1983,
      "戊": 1984,
      "戌": 1985,
      "戍": 1986,
      "戎": 1987,
      "戏": 1988,
      "成": 1989,
      "我": 1990,
      "戒": 1991,
      "或": 1992,
      "战": 1993,
      "戚": 1994,
      "戛": 1995,
      "戟": 1996,
      "戡": 1997,
      "戦": 1998,
      "截": 1999,
      "戮": 2000,
      "戰": 2001,
      "戲": 2002,
      "戳": 2003,
      "戴": 2004,
      "戶": 2005,
      "户": 2006,
      "戸": 2007,
      "戾": 2008,
      "房": 2009,
      "所": 2010,
      "扁": 2011,
      "扇": 2012,
      "扈": 2013,
      "扉": 2014,
      "手": 2015,
      "才": 2016,
      "扎": 2017,
      "扑": 2018,
      "扒": 2019,
      "打": 2020,
      "扔": 2021,
      "托": 2022,
      "扛": 2023,
      "扣": 2024,
      "执": 2025,
      "扩": 2026,
      "扫": 2027,
      "扬": 2028,
      "扭": 2029,
      "扮": 2030,
      "扯": 2031,
      "扰": 2032,
      "扳": 2033,
      "扶": 2034,
      "批": 2035,
      "扼": 2036,
      "找": 2037,
      "承": 2038,
      "技": 2039,
      "抄": 2040,
      "抉": 2041,
      "把": 2042,
      "抑": 2043,
      "抒": 2044,
      "抓": 2045,
      "投": 2046,
      "抖": 2047,
      "抗": 2048,
      "折": 2049,
      "抚": 2050,
      "抛": 2051,
      "抢": 2052,
      "护": 2053,
      "报": 2054,
      "抨": 2055,
      "披": 2056,
      "抬": 2057,
      "抱": 2058,
      "抵": 2059,
      "抹": 2060,
      "押": 2061,
      "抽": 2062,
      "拂": 2063,
      "担": 2064,
      "拆": 2065,
      "拇": 2066,
      "拉": 2067,
      "拋": 2068,
      "拌": 2069,
      "拍": 2070,
      "拐": 2071,
      "拒": 2072,
      "拓": 2073,
      "拔": 2074,
      "拖": 2075,
      "拗": 2076,
      "拘": 2077,
      "拙": 2078,
      "拚": 2079,
      "招": 2080,
      "拜": 2081,
      "拟": 2082,
      "拢": 2083,
      "拥": 2084,
      "拦": 2085,
      "拨": 2086,
      "择": 2087,
      "括": 2088,
      "拭": 2089,
      "拮": 2090,
      "拯": 2091,
      "拱": 2092,
      "拳": 2093,
      "拷": 2094,
      "拼": 2095,
      "拾": 2096,
      "拿": 2097,
      "持": 2098,
      "挂": 2099,
      "指": 2100,
      "按": 2101,
      "挑": 2102,
      "挖": 2103,
      "挚": 2104,
      "挛": 2105,
      "挝": 2106,
      "挟": 2107,
      "挠": 2108,
      "挡": 2109,
      "挣": 2110,
      "挤": 2111,
      "挥": 2112,
      "挨": 2113,
      "挪": 2114,
      "挫": 2115,
      "振": 2116,
      "挹": 2117,
      "挺": 2118,
      "挽": 2119,
      "挾": 2120,
      "捆": 2121,
      "捉": 2122,
      "捍": 2123,
      "捏": 2124,
      "捐": 2125,
      "捕": 2126,
      "捞": 2127,
      "损": 2128,
      "捡": 2129,
      "换": 2130,
      "捣": 2131,
      "捧": 2132,
      "捨": 2133,
      "捩": 2134,
      "据": 2135,
      "捲": 2136,
      "捷": 2137,
      "捻": 2138,
      "掀": 2139,
      "掃": 2140,
      "授": 2141,
      "掉": 2142,
      "掌": 2143,
      "掏": 2144,
      "排": 2145,
      "掖": 2146,
      "掘": 2147,
      "掙": 2148,
      "掛": 2149,
      "掠": 2150,
      "採": 2151,
      "探": 2152,
      "掣": 2153,
      "接": 2154,
      "控": 2155,
      "推": 2156,
      "掩": 2157,
      "措": 2158,
      "掳": 2159,
      "掷": 2160,
      "掸": 2161,
      "掺": 2162,
      "掾": 2163,
      "揀": 2164,
      "揄": 2165,
      "揆": 2166,
      "揉": 2167,
      "描": 2168,
      "提": 2169,
      "插": 2170,
      "揖": 2171,
      "揚": 2172,
      "換": 2173,
      "握": 2174,
      "揣": 2175,
      "揪": 2176,
      "揭": 2177,
      "揮": 2178,
      "援": 2179,
      "揶": 2180,
      "揽": 2181,
      "搁": 2182,
      "搅": 2183,
      "損": 2184,
      "搏": 2185,
      "搖": 2186,
      "搗": 2187,
      "搜": 2188,
      "搞": 2189,
      "搬": 2190,
      "搭": 2191,
      "搶": 2192,
      "携": 2193,
      "摄": 2194,
      "摆": 2195,
      "摇": 2196,
      "摊": 2197,
      "摒": 2198,
      "摔": 2199,
      "摘": 2200,
      "摧": 2201,
      "摩": 2202,
      "摯": 2203,
      "摸": 2204,
      "摹": 2205,
      "摺": 2206,
      "摻": 2207,
      "撃": 2208,
      "撇": 2209,
      "撈": 2210,
      "撐": 2211,
      "撑": 2212,
      "撒": 2213,
      "撓": 2214,
      "撕": 2215,
      "撞": 2216,
      "撤": 2217,
      "撥": 2218,
      "撫": 2219,
      "播": 2220,
      "撮": 2221,
      "撰": 2222,
      "撲": 2223,
      "撻": 2224,
      "撼": 2225,
      "撿": 2226,
      "擁": 2227,
      "擂": 2228,
      "擄": 2229,
      "擅": 2230,
      "擇": 2231,
      "擊": 2232,
      "擋": 2233,
      "操": 2234,
      "擎": 2235,
      "擒": 2236,
      "擔": 2237,
      "擘": 2238,
      "據": 2239,
      "擠": 2240,
      "擢": 2241,
      "擦": 2242,
      "擬": 2243,
      "擱": 2244,
      "擲": 2245,
      "擴": 2246,
      "擺": 2247,
      "擾": 2248,
      "攀": 2249,
      "攏": 2250,
      "攔": 2251,
      "攘": 2252,
      "攜": 2253,
      "攝": 2254,
      "攣": 2255,
      "攤": 2256,
      "攪": 2257,
      "攫": 2258,
      "攬": 2259,
      "支": 2260,
      "收": 2261,
      "攸": 2262,
      "改": 2263,
      "攻": 2264,
      "放": 2265,
      "政": 2266,
      "故": 2267,
      "效": 2268,
      "敌": 2269,
      "敍": 2270,
      "敎": 2271,
      "敏": 2272,
      "救": 2273,
      "敕": 2274,
      "敖": 2275,
      "敗": 2276,
      "敘": 2277,
      "教": 2278,
      "敛": 2279,
      "敝": 2280,
      "敞": 2281,
      "敢": 2282,
      "散": 2283,
      "敦": 2284,
      "敬": 2285,
      "数": 2286,
      "敲": 2287,
      "整": 2288,
      "敵": 2289,
      "敷": 2290,
      "數": 2291,
      "斂": 2292,
      "斃": 2293,
      "文": 2294,
      "斋": 2295,
      "斌": 2296,
      "斐": 2297,
      "斑": 2298,
      "斗": 2299,
      "料": 2300,
      "斛": 2301,
      "斜": 2302,
      "斟": 2303,
      "斡": 2304,
      "斤": 2305,
      "斥": 2306,
      "斧": 2307,
      "斩": 2308,
      "斬": 2309,
      "断": 2310,
      "斯": 2311,
      "新": 2312,
      "斷": 2313,
      "方": 2314,
      "於": 2315,
      "施": 2316,
      "旁": 2317,
      "旃": 2318,
      "旅": 2319,
      "旋": 2320,
      "旌": 2321,
      "族": 2322,
      "旗": 2323,
      "无": 2324,
      "既": 2325,
      "日": 2326,
      "旦": 2327,
      "旧": 2328,
      "旨": 2329,
      "早": 2330,
      "旬": 2331,
      "旭": 2332,
      "旱": 2333,
      "时": 2334,
      "旷": 2335,
      "旺": 2336,
      "旻": 2337,
      "旼": 2338,
      "昀": 2339,
      "昂": 2340,
      "昆": 2341,
      "昇": 2342,
      "昉": 2343,
      "昊": 2344,
      "昌": 2345,
      "明": 2346,
      "昏": 2347,
      "易": 2348,
      "昔": 2349,
      "昕": 2350,
      "昙": 2351,
      "星": 2352,
      "映": 2353,
      "春": 2354,
      "昧": 2355,
      "昨": 2356,
      "昭": 2357,
      "是": 2358,
      "昱": 2359,
      "昴": 2360,
      "昵": 2361,
      "昶": 2362,
      "昼": 2363,
      "显": 2364,
      "晁": 2365,
      "時": 2366,
      "晃": 2367,
      "晉": 2368,
      "晋": 2369,
      "晏": 2370,
      "晒": 2371,
      "晓": 2372,
      "晔": 2373,
      "晕": 2374,
      "晖": 2375,
      "晗": 2376,
      "晚": 2377,
      "晝": 2378,
      "晞": 2379,
      "晟": 2380,
      "晤": 2381,
      "晦": 2382,
      "晨": 2383,
      "晩": 2384,
      "普": 2385,
      "景": 2386,
      "晰": 2387,
      "晴": 2388,
      "晶": 2389,
      "晷": 2390,
      "智": 2391,
      "暂": 2392,
      "暄": 2393,
      "暇": 2394,
      "暈": 2395,
      "暉": 2396,
      "暐": 2397,
      "暑": 2398,
      "暖": 2399,
      "暗": 2400,
      "暠": 2401,
      "暢": 2402,
      "暨": 2403,
      "暫": 2404,
      "暮": 2405,
      "暱": 2406,
      "暴": 2407,
      "暹": 2408,
      "曄": 2409,
      "曆": 2410,
      "曇": 2411,
      "曉": 2412,
      "曖": 2413,
      "曙": 2414,
      "曜": 2415,
      "曝": 2416,
      "曠": 2417,
      "曦": 2418,
      "曬": 2419,
      "曰": 2420,
      "曲": 2421,
      "曳": 2422,
      "更": 2423,
      "曷": 2424,
      "書": 2425,
      "曹": 2426,
      "曼": 2427,
      "曾": 2428,
      "替": 2429,
      "最": 2430,
      "會": 2431,
      "月": 2432,
      "有": 2433,
      "朋": 2434,
      "服": 2435,
      "朐": 2436,
      "朔": 2437,
      "朕": 2438,
      "朗": 2439,
      "望": 2440,
      "朝": 2441,
      "期": 2442,
      "朦": 2443,
      "木": 2444,
      "未": 2445,
      "末": 2446,
      "本": 2447,
      "札": 2448,
      "术": 2449,
      "朱": 2450,
      "朴": 2451,
      "朵": 2452,
      "机": 2453,
      "朽": 2454,
      "杀": 2455,
      "杂": 2456,
      "权": 2457,
      "杆": 2458,
      "杉": 2459,
      "李": 2460,
      "杏": 2461,
      "材": 2462,
      "村": 2463,
      "杓": 2464,
      "杖": 2465,
      "杜": 2466,
      "杞": 2467,
      "束": 2468,
      "杠": 2469,
      "条": 2470,
      "来": 2471,
      "杨": 2472,
      "杭": 2473,
      "杯": 2474,
      "杰": 2475,
      "東": 2476,
      "杲": 2477,
      "杵": 2478,
      "杷": 2479,
      "松": 2480,
      "板": 2481,
      "极": 2482,
      "构": 2483,
      "枉": 2484,
      "枋": 2485,
      "析": 2486,
      "枕": 2487,
      "林": 2488,
      "枚": 2489,
      "果": 2490,
      "枝": 2491,
      "枢": 2492,
      "枣": 2493,
      "枪": 2494,
      "枫": 2495,
      "枭": 2496,
      "枯": 2497,
      "架": 2498,
      "枷": 2499,
      "柄": 2500,
      "柏": 2501,
      "某": 2502,
      "柑": 2503,
      "染": 2504,
      "柔": 2505,
      "柘": 2506,
      "柚": 2507,
      "柜": 2508,
      "柝": 2509,
      "柠": 2510,
      "查": 2511,
      "柩": 2512,
      "柬": 2513,
      "柯": 2514,
      "柱": 2515,
      "柳": 2516,
      "柴": 2517,
      "柵": 2518,
      "査": 2519,
      "柿": 2520,
      "栃": 2521,
      "栅": 2522,
      "标": 2523,
      "栈": 2524,
      "栉": 2525,
      "栋": 2526,
      "栎": 2527,
      "栏": 2528,
      "树": 2529,
      "栓": 2530,
      "栖": 2531,
      "栗": 2532,
      "校": 2533,
      "栢": 2534,
      "栩": 2535,
      "株": 2536,
      "栱": 2537,
      "样": 2538,
      "核": 2539,
      "根": 2540,
      "格": 2541,
      "栽": 2542,
      "栾": 2543,
      "桀": 2544,
      "桁": 2545,
      "桂": 2546,
      "桃": 2547,
      "桅": 2548,
      "框": 2549,
      "案": 2550,
      "桌": 2551,
      "桐": 2552,
      "桑": 2553,
      "桓": 2554,
      "桔": 2555,
      "桢": 2556,
      "档": 2557,
      "桥": 2558,
      "桦": 2559,
      "桧": 2560,
      "桨": 2561,
      "桩": 2562,
      "桶": 2563,
      "桿": 2564,
      "梁": 2565,
      "梅": 2566,
      "梓": 2567,
      "梗": 2568,
      "條": 2569,
      "梟": 2570,
      "梢": 2571,
      "梦": 2572,
      "梧": 2573,
      "梨": 2574,
      "梭": 2575,
      "梯": 2576,
      "械": 2577,
      "梳": 2578,
      "梵": 2579,
      "梶": 2580,
      "检": 2581,
      "棄": 2582,
      "棉": 2583,
      "棋": 2584,
      "棍": 2585,
      "棒": 2586,
      "棕": 2587,
      "棗": 2588,
      "棘": 2589,
      "棚": 2590,
      "棟": 2591,
      "棠": 2592,
      "棣": 2593,
      "棧": 2594,
      "森": 2595,
      "棱": 2596,
      "棲": 2597,
      "棵": 2598,
      "棺": 2599,
      "棻": 2600,
      "椅": 2601,
      "植": 2602,
      "椎": 2603,
      "椒": 2604,
      "椭": 2605,
      "椰": 2606,
      "椽": 2607,
      "椿": 2608,
      "楊": 2609,
      "楓": 2610,
      "楔": 2611,
      "楚": 2612,
      "楞": 2613,
      "楠": 2614,
      "楣": 2615,
      "楨": 2616,
      "楫": 2617,
      "業": 2618,
      "楯": 2619,
      "極": 2620,
      "楷": 2621,
      "楹": 2622,
      "楼": 2623,
      "楽": 2624,
      "概": 2625,
      "榄": 2626,
      "榆": 2627,
      "榈": 2628,
      "榔": 2629,
      "榕": 2630,
      "榘": 2631,
      "榛": 2632,
      "榜": 2633,
      "榨": 2634,
      "榭": 2635,
      "榮": 2636,
      "榴": 2637,
      "榷": 2638,
      "榻": 2639,
      "槃": 2640,
      "構": 2641,
      "槌": 2642,
      "槍": 2643,
      "槎": 2644,
      "槐": 2645,
      "槓": 2646,
      "様": 2647,
      "槛": 2648,
      "槟": 2649,
      "槭": 2650,
      "槳": 2651,
      "槻": 2652,
      "槽": 2653,
      "槿": 2654,
      "樁": 2655,
      "樂": 2656,
      "樊": 2657,
      "樋": 2658,
      "樑": 2659,
      "樓": 2660,
      "標": 2661,
      "樞": 2662,
      "樟": 2663,
      "模": 2664,
      "樣": 2665,
      "横": 2666,
      "樱": 2667,
      "樵": 2668,
      "樸": 2669,
      "樹": 2670,
      "樺": 2671,
      "樽": 2672,
      "橄": 2673,
      "橇": 2674,
      "橈": 2675,
      "橋": 2676,
      "橐": 2677,
      "橘": 2678,
      "橙": 2679,
      "機": 2680,
      "橡": 2681,
      "橢": 2682,
      "橫": 2683,
      "檀": 2684,
      "檄": 2685,
      "檎": 2686,
      "檐": 2687,
      "檔": 2688,
      "檗": 2689,
      "檜": 2690,
      "檢": 2691,
      "檬": 2692,
      "檯": 2693,
      "檳": 2694,
      "檸": 2695,
      "檻": 2696,
      "櫃": 2697,
      "櫚": 2698,
      "櫛": 2699,
      "櫟": 2700,
      "櫥": 2701,
      "櫻": 2702,
      "欄": 2703,
      "權": 2704,
      "欒": 2705,
      "欖": 2706,
      "欠": 2707,
      "次": 2708,
      "欢": 2709,
      "欣": 2710,
      "欧": 2711,
      "欲": 2712,
      "欺": 2713,
      "欽": 2714,
      "款": 2715,
      "歆": 2716,
      "歇": 2717,
      "歉": 2718,
      "歌": 2719,
      "歎": 2720,
      "歐": 2721,
      "歙": 2722,
      "歡": 2723,
      "止": 2724,
      "正": 2725,
      "此": 2726,
      "步": 2727,
      "武": 2728,
      "歧": 2729,
      "歩": 2730,
      "歪": 2731,
      "歲": 2732,
      "歳": 2733,
      "歴": 2734,
      "歷": 2735,
      "歸": 2736,
      "歹": 2737,
      "死": 2738,
      "歼": 2739,
      "歿": 2740,
      "殃": 2741,
      "殆": 2742,
      "殇": 2743,
      "殉": 2744,
      "殊": 2745,
      "残": 2746,
      "殖": 2747,
      "殘": 2748,
      "殡": 2749,
      "殤": 2750,
      "殭": 2751,
      "殯": 2752,
      "殲": 2753,
      "殴": 2754,
      "段": 2755,
      "殷": 2756,
      "殺": 2757,
      "殼": 2758,
      "殿": 2759,
      "毀": 2760,
      "毁": 2761,
      "毅": 2762,
      "毆": 2763,
      "毋": 2764,
      "母": 2765,
      "毎": 2766,
      "每": 2767,
      "毒": 2768,
      "毓": 2769,
      "比": 2770,
      "毕": 2771,
      "毗": 2772,
      "毘": 2773,
      "毙": 2774,
      "毛": 2775,
      "毫": 2776,
      "毯": 2777,
      "氈": 2778,
      "氏": 2779,
      "氐": 2780,
      "民": 2781,
      "氓": 2782,
      "气": 2783,
      "氙": 2784,
      "氛": 2785,
      "氟": 2786,
      "氢": 2787,
      "氣": 2788,
      "氦": 2789,
      "氧": 2790,
      "氨": 2791,
      "氫": 2792,
      "氮": 2793,
      "氯": 2794,
      "氰": 2795,
      "水": 2796,
      "永": 2797,
      "氹": 2798,
      "氾": 2799,
      "汀": 2800,
      "汁": 2801,
      "求": 2802,
      "汇": 2803,
      "汉": 2804,
      "汎": 2805,
      "汐": 2806,
      "汕": 2807,
      "汗": 2808,
      "汙": 2809,
      "汛": 2810,
      "汜": 2811,
      "汝": 2812,
      "汞": 2813,
      "江": 2814,
      "池": 2815,
      "污": 2816,
      "汤": 2817,
      "汨": 2818,
      "汪": 2819,
      "汰": 2820,
      "汲": 2821,
      "汴": 2822,
      "汶": 2823,
      "決": 2824,
      "汽": 2825,
      "汾": 2826,
      "沁": 2827,
      "沂": 2828,
      "沃": 2829,
      "沅": 2830,
      "沈": 2831,
      "沉": 2832,
      "沌": 2833,
      "沐": 2834,
      "沒": 2835,
      "沓": 2836,
      "沔": 2837,
      "沖": 2838,
      "沙": 2839,
      "沛": 2840,
      "沟": 2841,
      "没": 2842,
      "沢": 2843,
      "沥": 2844,
      "沦": 2845,
      "沧": 2846,
      "沪": 2847,
      "沫": 2848,
      "沭": 2849,
      "沮": 2850,
      "沱": 2851,
      "河": 2852,
      "沸": 2853,
      "油": 2854,
      "治": 2855,
      "沼": 2856,
      "沽": 2857,
      "沾": 2858,
      "沿": 2859,
      "況": 2860,
      "泄": 2861,
      "泉": 2862,
      "泊": 2863,
      "泌": 2864,
      "泓": 2865,
      "法": 2866,
      "泗": 2867,
      "泛": 2868,
      "泠": 2869,
      "泡": 2870,
      "波": 2871,
      "泣": 2872,
      "泥": 2873,
      "注": 2874,
      "泪": 2875,
      "泮": 2876,
      "泰": 2877,
      "泳": 2878,
      "泵": 2879,
      "泸": 2880,
      "泻": 2881,
      "泼": 2882,
      "泽": 2883,
      "泾": 2884,
      "洁": 2885,
      "洄": 2886,
      "洋": 2887,
      "洒": 2888,
      "洗": 2889,
      "洙": 2890,
      "洛": 2891,
      "洞": 2892,
      "津": 2893,
      "洩": 2894,
      "洪": 2895,
      "洮": 2896,
      "洱": 2897,
      "洲": 2898,
      "洵": 2899,
      "活": 2900,
      "洼": 2901,
      "洽": 2902,
      "派": 2903,
      "流": 2904,
      "浅": 2905,
      "浆": 2906,
      "浇": 2907,
      "浊": 2908,
      "测": 2909,
      "济": 2910,
      "浏": 2911,
      "浑": 2912,
      "浒": 2913,
      "浓": 2914,
      "浔": 2915,
      "浙": 2916,
      "浚": 2917,
      "浜": 2918,
      "浣": 2919,
      "浦": 2920,
      "浩": 2921,
      "浪": 2922,
      "浬": 2923,
      "浮": 2924,
      "浴": 2925,
      "海": 2926,
      "浸": 2927,
      "涂": 2928,
      "涅": 2929,
      "涇": 2930,
      "消": 2931,
      "涉": 2932,
      "涌": 2933,
      "涎": 2934,
      "涓": 2935,
      "涕": 2936,
      "涛": 2937,
      "涝": 2938,
      "涟": 2939,
      "涡": 2940,
      "涤": 2941,
      "润": 2942,
      "涧": 2943,
      "涨": 2944,
      "涩": 2945,
      "涪": 2946,
      "涯": 2947,
      "液": 2948,
      "涵": 2949,
      "涸": 2950,
      "涼": 2951,
      "涿": 2952,
      "淀": 2953,
      "淄": 2954,
      "淅": 2955,
      "淆": 2956,
      "淇": 2957,
      "淋": 2958,
      "淑": 2959,
      "淖": 2960,
      "淘": 2961,
      "淚": 2962,
      "淝": 2963,
      "淞": 2964,
      "淡": 2965,
      "淤": 2966,
      "淦": 2967,
      "淨": 2968,
      "淪": 2969,
      "淫": 2970,
      "淮": 2971,
      "深": 2972,
      "淳": 2973,
      "淵": 2974,
      "混": 2975,
      "淹": 2976,
      "淺": 2977,
      "添": 2978,
      "清": 2979,
      "渊": 2980,
      "渍": 2981,
      "渎": 2982,
      "渐": 2983,
      "渔": 2984,
      "渗": 2985,
      "渚": 2986,
      "減": 2987,
      "渝": 2988,
      "渠": 2989,
      "渡": 2990,
      "渣": 2991,
      "渤": 2992,
      "渥": 2993,
      "渦": 2994,
      "温": 2995,
      "測": 2996,
      "渭": 2997,
      "港": 2998,
      "渲": 2999,
      "渴": 3000,
      "游": 3001,
      "渺": 3002,
      "渾": 3003,
      "湃": 3004,
      "湄": 3005,
      "湊": 3006,
      "湍": 3007,
      "湖": 3008,
      "湘": 3009,
      "湛": 3010,
      "湟": 3011,
      "湧": 3012,
      "湮": 3013,
      "湯": 3014,
      "湳": 3015,
      "湾": 3016,
      "湿": 3017,
      "溃": 3018,
      "溅": 3019,
      "溉": 3020,
      "源": 3021,
      "準": 3022,
      "溜": 3023,
      "溝": 3024,
      "溟": 3025,
      "溢": 3026,
      "溥": 3027,
      "溧": 3028,
      "溪": 3029,
      "溫": 3030,
      "溯": 3031,
      "溴": 3032,
      "溶": 3033,
      "溺": 3034,
      "滁": 3035,
      "滂": 3036,
      "滄": 3037,
      "滅": 3038,
      "滇": 3039,
      "滋": 3040,
      "滌": 3041,
      "滎": 3042,
      "滑": 3043,
      "滔": 3044,
      "滕": 3045,
      "滘": 3046,
      "滙": 3047,
      "滚": 3048,
      "滞": 3049,
      "满": 3050,
      "滤": 3051,
      "滥": 3052,
      "滦": 3053,
      "滨": 3054,
      "滩": 3055,
      "滬": 3056,
      "滯": 3057,
      "滲": 3058,
      "滴": 3059,
      "滸": 3060,
      "滾": 3061,
      "滿": 3062,
      "漁": 3063,
      "漂": 3064,
      "漆": 3065,
      "漏": 3066,
      "漓": 3067,
      "演": 3068,
      "漕": 3069,
      "漠": 3070,
      "漢": 3071,
      "漣": 3072,
      "漩": 3073,
      "漪": 3074,
      "漫": 3075,
      "漬": 3076,
      "漯": 3077,
      "漱": 3078,
      "漲": 3079,
      "漳": 3080,
      "漸": 3081,
      "漾": 3082,
      "漿": 3083,
      "潁": 3084,
      "潇": 3085,
      "潍": 3086,
      "潑": 3087,
      "潔": 3088,
      "潘": 3089,
      "潛": 3090,
      "潜": 3091,
      "潞": 3092,
      "潟": 3093,
      "潢": 3094,
      "潤": 3095,
      "潦": 3096,
      "潭": 3097,
      "潮": 3098,
      "潯": 3099,
      "潰": 3100,
      "潼": 3101,
      "澀": 3102,
      "澂": 3103,
      "澄": 3104,
      "澆": 3105,
      "澈": 3106,
      "澍": 3107,
      "澎": 3108,
      "澗": 3109,
      "澜": 3110,
      "澡": 3111,
      "澤": 3112,
      "澧": 3113,
      "澱": 3114,
      "澳": 3115,
      "澹": 3116,
      "激": 3117,
      "濁": 3118,
      "濂": 3119,
      "濃": 3120,
      "濑": 3121,
      "濒": 3122,
      "濕": 3123,
      "濛": 3124,
      "濟": 3125,
      "濠": 3126,
      "濡": 3127,
      "濤": 3128,
      "濫": 3129,
      "濬": 3130,
      "濮": 3131,
      "濯": 3132,
      "濱": 3133,
      "濺": 3134,
      "濾": 3135,
      "瀆": 3136,
      "瀉": 3137,
      "瀋": 3138,
      "瀏": 3139,
      "瀑": 3140,
      "瀕": 3141,
      "瀘": 3142,
      "瀚": 3143,
      "瀛": 3144,
      "瀝": 3145,
      "瀟": 3146,
      "瀧": 3147,
      "瀨": 3148,
      "瀬": 3149,
      "瀾": 3150,
      "灌": 3151,
      "灏": 3152,
      "灑": 3153,
      "灘": 3154,
      "灝": 3155,
      "灞": 3156,
      "灣": 3157,
      "火": 3158,
      "灭": 3159,
      "灯": 3160,
      "灰": 3161,
      "灵": 3162,
      "灶": 3163,
      "灸": 3164,
      "灼": 3165,
      "災": 3166,
      "灾": 3167,
      "灿": 3168,
      "炀": 3169,
      "炅": 3170,
      "炉": 3171,
      "炊": 3172,
      "炎": 3173,
      "炒": 3174,
      "炔": 3175,
      "炙": 3176,
      "炜": 3177,
      "炫": 3178,
      "炬": 3179,
      "炭": 3180,
      "炮": 3181,
      "炯": 3182,
      "炱": 3183,
      "炳": 3184,
      "炸": 3185,
      "点": 3186,
      "為": 3187,
      "炼": 3188,
      "炽": 3189,
      "烁": 3190,
      "烂": 3191,
      "烃": 3192,
      "烈": 3193,
      "烏": 3194,
      "烘": 3195,
      "烙": 3196,
      "烛": 3197,
      "烟": 3198,
      "烤": 3199,
      "烦": 3200,
      "烧": 3201,
      "烨": 3202,
      "烫": 3203,
      "热": 3204,
      "烯": 3205,
      "烴": 3206,
      "烷": 3207,
      "烹": 3208,
      "烽": 3209,
      "焉": 3210,
      "焊": 3211,
      "焕": 3212,
      "焘": 3213,
      "焙": 3214,
      "焚": 3215,
      "焜": 3216,
      "無": 3217,
      "焦": 3218,
      "焯": 3219,
      "焰": 3220,
      "然": 3221,
      "煇": 3222,
      "煉": 3223,
      "煊": 3224,
      "煌": 3225,
      "煎": 3226,
      "煒": 3227,
      "煙": 3228,
      "煜": 3229,
      "煞": 3230,
      "煤": 3231,
      "煥": 3232,
      "煦": 3233,
      "照": 3234,
      "煩": 3235,
      "煬": 3236,
      "煮": 3237,
      "煲": 3238,
      "煽": 3239,
      "熄": 3240,
      "熊": 3241,
      "熏": 3242,
      "熒": 3243,
      "熔": 3244,
      "熙": 3245,
      "熟": 3246,
      "熬": 3247,
      "熱": 3248,
      "熵": 3249,
      "熹": 3250,
      "熾": 3251,
      "燁": 3252,
      "燃": 3253,
      "燈": 3254,
      "燊": 3255,
      "燎": 3256,
      "燒": 3257,
      "燕": 3258,
      "燙": 3259,
      "營": 3260,
      "燥": 3261,
      "燦": 3262,
      "燧": 3263,
      "燭": 3264,
      "燮": 3265,
      "燼": 3266,
      "燾": 3267,
      "爆": 3268,
      "爍": 3269,
      "爐": 3270,
      "爛": 3271,
      "爪": 3272,
      "爬": 3273,
      "爭": 3274,
      "爰": 3275,
      "爱": 3276,
      "爲": 3277,
      "爵": 3278,
      "父": 3279,
      "爷": 3280,
      "爸": 3281,
      "爹": 3282,
      "爺": 3283,
      "爽": 3284,
      "爾": 3285,
      "牆": 3286,
      "片": 3287,
      "版": 3288,
      "牌": 3289,
      "牒": 3290,
      "牙": 3291,
      "牛": 3292,
      "牟": 3293,
      "牠": 3294,
      "牡": 3295,
      "牢": 3296,
      "牧": 3297,
      "物": 3298,
      "牲": 3299,
      "牵": 3300,
      "特": 3301,
      "牺": 3302,
      "牽": 3303,
      "犀": 3304,
      "犁": 3305,
      "犍": 3306,
      "犛": 3307,
      "犢": 3308,
      "犧": 3309,
      "犬": 3310,
      "犯": 3311,
      "状": 3312,
      "犹": 3313,
      "狀": 3314,
      "狂": 3315,
      "狄": 3316,
      "狐": 3317,
      "狗": 3318,
      "狙": 3319,
      "狠": 3320,
      "狡": 3321,
      "狩": 3322,
      "独": 3323,
      "狭": 3324,
      "狮": 3325,
      "狱": 3326,
      "狸": 3327,
      "狹": 3328,
      "狼": 3329,
      "猎": 3330,
      "猕": 3331,
      "猖": 3332,
      "猗": 3333,
      "猛": 3334,
      "猜": 3335,
      "猝": 3336,
      "猥": 3337,
      "猩": 3338,
      "猪": 3339,
      "猫": 3340,
      "献": 3341,
      "猴": 3342,
      "猶": 3343,
      "猷": 3344,
      "猾": 3345,
      "猿": 3346,
      "獄": 3347,
      "獅": 3348,
      "獎": 3349,
      "獐": 3350,
      "獠": 3351,
      "獨": 3352,
      "獲": 3353,
      "獵": 3354,
      "獸": 3355,
      "獺": 3356,
      "獻": 3357,
      "獾": 3358,
      "玄": 3359,
      "率": 3360,
      "玉": 3361,
      "王": 3362,
      "玖": 3363,
      "玛": 3364,
      "玟": 3365,
      "玠": 3366,
      "玩": 3367,
      "玫": 3368,
      "玮": 3369,
      "环": 3370,
      "现": 3371,
      "玲": 3372,
      "玳": 3373,
      "玺": 3374,
      "玻": 3375,
      "珀": 3376,
      "珂": 3377,
      "珅": 3378,
      "珈": 3379,
      "珉": 3380,
      "珊": 3381,
      "珍": 3382,
      "珏": 3383,
      "珑": 3384,
      "珙": 3385,
      "珞": 3386,
      "珠": 3387,
      "珣": 3388,
      "珥": 3389,
      "珩": 3390,
      "珪": 3391,
      "班": 3392,
      "珮": 3393,
      "珲": 3394,
      "現": 3395,
      "球": 3396,
      "琅": 3397,
      "理": 3398,
      "琇": 3399,
      "琉": 3400,
      "琊": 3401,
      "琏": 3402,
      "琐": 3403,
      "琚": 3404,
      "琛": 3405,
      "琢": 3406,
      "琥": 3407,
      "琦": 3408,
      "琨": 3409,
      "琪": 3410,
      "琬": 3411,
      "琮": 3412,
      "琰": 3413,
      "琳": 3414,
      "琴": 3415,
      "琵": 3416,
      "琶": 3417,
      "琼": 3418,
      "瑀": 3419,
      "瑁": 3420,
      "瑄": 3421,
      "瑋": 3422,
      "瑕": 3423,
      "瑗": 3424,
      "瑙": 3425,
      "瑚": 3426,
      "瑛": 3427,
      "瑜": 3428,
      "瑞": 3429,
      "瑟": 3430,
      "瑠": 3431,
      "瑣": 3432,
      "瑤": 3433,
      "瑩": 3434,
      "瑪": 3435,
      "瑭": 3436,
      "瑯": 3437,
      "瑰": 3438,
      "瑶": 3439,
      "瑾": 3440,
      "璀": 3441,
      "璃": 3442,
      "璇": 3443,
      "璉": 3444,
      "璋": 3445,
      "璐": 3446,
      "璘": 3447,
      "璜": 3448,
      "璞": 3449,
      "璟": 3450,
      "璠": 3451,
      "璧": 3452,
      "璨": 3453,
      "環": 3454,
      "璽": 3455,
      "璿": 3456,
      "瓊": 3457,
      "瓏": 3458,
      "瓒": 3459,
      "瓘": 3460,
      "瓚": 3461,
      "瓜": 3462,
      "瓢": 3463,
      "瓣": 3464,
      "瓦": 3465,
      "瓮": 3466,
      "瓯": 3467,
      "瓶": 3468,
      "瓷": 3469,
      "甄": 3470,
      "甌": 3471,
      "甕": 3472,
      "甘": 3473,
      "甚": 3474,
      "甜": 3475,
      "生": 3476,
      "產": 3477,
      "産": 3478,
      "甥": 3479,
      "甦": 3480,
      "用": 3481,
      "甩": 3482,
      "甫": 3483,
      "甬": 3484,
      "甯": 3485,
      "田": 3486,
      "由": 3487,
      "甲": 3488,
      "申": 3489,
      "电": 3490,
      "男": 3491,
      "甸": 3492,
      "町": 3493,
      "画": 3494,
      "畅": 3495,
      "畈": 3496,
      "界": 3497,
      "畏": 3498,
      "畑": 3499,
      "畔": 3500,
      "留": 3501,
      "畜": 3502,
      "畝": 3503,
      "畠": 3504,
      "畢": 3505,
      "略": 3506,
      "番": 3507,
      "畫": 3508,
      "異": 3509,
      "畲": 3510,
      "畴": 3511,
      "當": 3512,
      "畸": 3513,
      "畿": 3514,
      "疃": 3515,
      "疆": 3516,
      "疇": 3517,
      "疊": 3518,
      "疏": 3519,
      "疑": 3520,
      "疗": 3521,
      "疚": 3522,
      "疟": 3523,
      "疣": 3524,
      "疤": 3525,
      "疫": 3526,
      "疮": 3527,
      "疯": 3528,
      "疱": 3529,
      "疲": 3530,
      "疵": 3531,
      "疹": 3532,
      "疼": 3533,
      "疽": 3534,
      "疾": 3535,
      "病": 3536,
      "症": 3537,
      "痊": 3538,
      "痒": 3539,
      "痕": 3540,
      "痘": 3541,
      "痙": 3542,
      "痛": 3543,
      "痞": 3544,
      "痢": 3545,
      "痪": 3546,
      "痰": 3547,
      "痴": 3548,
      "痹": 3549,
      "痺": 3550,
      "瘀": 3551,
      "瘋": 3552,
      "瘍": 3553,
      "瘓": 3554,
      "瘟": 3555,
      "瘠": 3556,
      "瘡": 3557,
      "瘤": 3558,
      "瘦": 3559,
      "瘧": 3560,
      "瘫": 3561,
      "瘴": 3562,
      "瘾": 3563,
      "療": 3564,
      "癇": 3565,
      "癌": 3566,
      "癒": 3567,
      "癖": 3568,
      "癡": 3569,
      "癢": 3570,
      "癫": 3571,
      "癮": 3572,
      "癱": 3573,
      "癲": 3574,
      "癸": 3575,
      "発": 3576,
      "登": 3577,
      "發": 3578,
      "白": 3579,
      "百": 3580,
      "皂": 3581,
      "的": 3582,
      "皆": 3583,
      "皇": 3584,
      "皈": 3585,
      "皋": 3586,
      "皎": 3587,
      "皓": 3588,
      "皖": 3589,
      "皮": 3590,
      "皱": 3591,
      "皺": 3592,
      "皿": 3593,
      "盂": 3594,
      "盃": 3595,
      "盆": 3596,
      "盈": 3597,
      "益": 3598,
      "盎": 3599,
      "盏": 3600,
      "盐": 3601,
      "监": 3602,
      "盒": 3603,
      "盔": 3604,
      "盖": 3605,
      "盗": 3606,
      "盘": 3607,
      "盛": 3608,
      "盜": 3609,
      "盞": 3610,
      "盟": 3611,
      "盡": 3612,
      "監": 3613,
      "盤": 3614,
      "盧": 3615,
      "盪": 3616,
      "目": 3617,
      "盯": 3618,
      "盱": 3619,
      "盲": 3620,
      "直": 3621,
      "相": 3622,
      "盼": 3623,
      "盾": 3624,
      "省": 3625,
      "眉": 3626,
      "看": 3627,
      "県": 3628,
      "眙": 3629,
      "眞": 3630,
      "真": 3631,
      "眠": 3632,
      "眩": 3633,
      "眶": 3634,
      "眷": 3635,
      "眺": 3636,
      "眼": 3637,
      "眾": 3638,
      "着": 3639,
      "睇": 3640,
      "睐": 3641,
      "睛": 3642,
      "睞": 3643,
      "睡": 3644,
      "睢": 3645,
      "督": 3646,
      "睦": 3647,
      "睪": 3648,
      "睫": 3649,
      "睹": 3650,
      "睽": 3651,
      "睾": 3652,
      "睿": 3653,
      "瞄": 3654,
      "瞎": 3655,
      "瞒": 3656,
      "瞞": 3657,
      "瞧": 3658,
      "瞩": 3659,
      "瞪": 3660,
      "瞬": 3661,
      "瞭": 3662,
      "瞰": 3663,
      "瞳": 3664,
      "瞻": 3665,
      "瞿": 3666,
      "矗": 3667,
      "矚": 3668,
      "矛": 3669,
      "矜": 3670,
      "矢": 3671,
      "矣": 3672,
      "知": 3673,
      "矩": 3674,
      "矫": 3675,
      "短": 3676,
      "矮": 3677,
      "矯": 3678,
      "石": 3679,
      "矶": 3680,
      "矽": 3681,
      "矿": 3682,
      "码": 3683,
      "砂": 3684,
      "砌": 3685,
      "砍": 3686,
      "研": 3687,
      "砖": 3688,
      "砚": 3689,
      "砥": 3690,
      "砦": 3691,
      "砧": 3692,
      "砲": 3693,
      "破": 3694,
      "砷": 3695,
      "砸": 3696,
      "砾": 3697,
      "础": 3698,
      "硅": 3699,
      "硒": 3700,
      "硕": 3701,
      "硝": 3702,
      "硤": 3703,
      "硫": 3704,
      "硬": 3705,
      "确": 3706,
      "硯": 3707,
      "硼": 3708,
      "碁": 3709,
      "碇": 3710,
      "碉": 3711,
      "碌": 3712,
      "碍": 3713,
      "碎": 3714,
      "碑": 3715,
      "碓": 3716,
      "碗": 3717,
      "碘": 3718,
      "碚": 3719,
      "碟": 3720,
      "碣": 3721,
      "碧": 3722,
      "碩": 3723,
      "碰": 3724,
      "碱": 3725,
      "碳": 3726,
      "確": 3727,
      "碼": 3728,
      "碾": 3729,
      "磁": 3730,
      "磅": 3731,
      "磊": 3732,
      "磋": 3733,
      "磐": 3734,
      "磚": 3735,
      "磡": 3736,
      "磨": 3737,
      "磯": 3738,
      "磷": 3739,
      "磺": 3740,
      "礁": 3741,
      "礎": 3742,
      "礙": 3743,
      "礦": 3744,
      "礫": 3745,
      "示": 3746,
      "礼": 3747,
      "社": 3748,
      "祀": 3749,
      "祁": 3750,
      "祂": 3751,
      "祇": 3752,
      "祈": 3753,
      "祉": 3754,
      "祐": 3755,
      "祕": 3756,
      "祖": 3757,
      "祗": 3758,
      "祚": 3759,
      "祜": 3760,
      "祝": 3761,
      "神": 3762,
      "祟": 3763,
      "祠": 3764,
      "祥": 3765,
      "票": 3766,
      "祭": 3767,
      "祯": 3768,
      "祷": 3769,
      "祸": 3770,
      "祺": 3771,
      "祿": 3772,
      "禀": 3773,
      "禁": 3774,
      "禄": 3775,
      "禅": 3776,
      "禍": 3777,
      "禎": 3778,
      "福": 3779,
      "禛": 3780,
      "禦": 3781,
      "禧": 3782,
      "禪": 3783,
      "禮": 3784,
      "禰": 3785,
      "禱": 3786,
      "禹": 3787,
      "禺": 3788,
      "离": 3789,
      "禽": 3790,
      "禾": 3791,
      "禿": 3792,
      "秀": 3793,
      "私": 3794,
      "秃": 3795,
      "秉": 3796,
      "秋": 3797,
      "种": 3798,
      "科": 3799,
      "秒": 3800,
      "秘": 3801,
      "租": 3802,
      "秣": 3803,
      "秤": 3804,
      "秦": 3805,
      "秧": 3806,
      "秩": 3807,
      "积": 3808,
      "称": 3809,
      "移": 3810,
      "秽": 3811,
      "稀": 3812,
      "稅": 3813,
      "程": 3814,
      "稍": 3815,
      "税": 3816,
      "稔": 3817,
      "稗": 3818,
      "稚": 3819,
      "稜": 3820,
      "稟": 3821,
      "稠": 3822,
      "稣": 3823,
      "種": 3824,
      "稱": 3825,
      "稳": 3826,
      "稷": 3827,
      "稻": 3828,
      "稼": 3829,
      "稽": 3830,
      "稿": 3831,
      "穀": 3832,
      "穂": 3833,
      "穆": 3834,
      "穌": 3835,
      "積": 3836,
      "穎": 3837,
      "穗": 3838,
      "穢": 3839,
      "穩": 3840,
      "穫": 3841,
      "穰": 3842,
      "穴": 3843,
      "究": 3844,
      "穷": 3845,
      "穹": 3846,
      "空": 3847,
      "穿": 3848,
      "突": 3849,
      "窃": 3850,
      "窄": 3851,
      "窈": 3852,
      "窑": 3853,
      "窒": 3854,
      "窖": 3855,
      "窗": 3856,
      "窘": 3857,
      "窜": 3858,
      "窝": 3859,
      "窟": 3860,
      "窥": 3861,
      "窦": 3862,
      "窩": 3863,
      "窪": 3864,
      "窮": 3865,
      "窯": 3866,
      "窺": 3867,
      "窿": 3868,
      "竄": 3869,
      "竇": 3870,
      "竊": 3871,
      "立": 3872,
      "竑": 3873,
      "竖": 3874,
      "站": 3875,
      "竞": 3876,
      "竟": 3877,
      "章": 3878,
      "竣": 3879,
      "童": 3880,
      "竭": 3881,
      "端": 3882,
      "競": 3883,
      "竹": 3884,
      "竺": 3885,
      "竿": 3886,
      "笃": 3887,
      "笈": 3888,
      "笋": 3889,
      "笏": 3890,
      "笑": 3891,
      "笔": 3892,
      "笙": 3893,
      "笛": 3894,
      "笞": 3895,
      "笠": 3896,
      "符": 3897,
      "笨": 3898,
      "第": 3899,
      "笹": 3900,
      "笺": 3901,
      "笼": 3902,
      "筆": 3903,
      "等": 3904,
      "筋": 3905,
      "筍": 3906,
      "筏": 3907,
      "筐": 3908,
      "筑": 3909,
      "筒": 3910,
      "答": 3911,
      "策": 3912,
      "筛": 3913,
      "筝": 3914,
      "筠": 3915,
      "筱": 3916,
      "筲": 3917,
      "筵": 3918,
      "筷": 3919,
      "筹": 3920,
      "签": 3921,
      "简": 3922,
      "箇": 3923,
      "箍": 3924,
      "箏": 3925,
      "箔": 3926,
      "箕": 3927,
      "算": 3928,
      "管": 3929,
      "箭": 3930,
      "箱": 3931,
      "箴": 3932,
      "節": 3933,
      "範": 3934,
      "篆": 3935,
      "篇": 3936,
      "築": 3937,
      "篙": 3938,
      "篠": 3939,
      "篡": 3940,
      "篤": 3941,
      "篩": 3942,
      "篮": 3943,
      "篱": 3944,
      "篷": 3945,
      "簇": 3946,
      "簡": 3947,
      "簧": 3948,
      "簪": 3949,
      "簫": 3950,
      "簷": 3951,
      "簸": 3952,
      "簽": 3953,
      "簾": 3954,
      "簿": 3955,
      "籃": 3956,
      "籌": 3957,
      "籍": 3958,
      "籠": 3959,
      "籤": 3960,
      "籬": 3961,
      "籲": 3962,
      "米": 3963,
      "类": 3964,
      "籽": 3965,
      "粉": 3966,
      "粒": 3967,
      "粗": 3968,
      "粘": 3969,
      "粟": 3970,
      "粤": 3971,
      "粥": 3972,
      "粪": 3973,
      "粮": 3974,
      "粱": 3975,
      "粲": 3976,
      "粵": 3977,
      "粹": 3978,
      "粽": 3979,
      "精": 3980,
      "糊": 3981,
      "糕": 3982,
      "糖": 3983,
      "糙": 3984,
      "糜": 3985,
      "糞": 3986,
      "糟": 3987,
      "糠": 3988,
      "糧": 3989,
      "糯": 3990,
      "糸": 3991,
      "系": 3992,
      "糾": 3993,
      "紀": 3994,
      "紂": 3995,
      "約": 3996,
      "紅": 3997,
      "紇": 3998,
      "紊": 3999,
      "紋": 4000,
      "納": 4001,
      "紐": 4002,
      "紓": 4003,
      "純": 4004,
      "紗": 4005,
      "紙": 4006,
      "級": 4007,
      "紛": 4008,
      "素": 4009,
      "紡": 4010,
      "索": 4011,
      "紧": 4012,
      "紫": 4013,
      "紮": 4014,
      "累": 4015,
      "細": 4016,
      "紳": 4017,
      "紹": 4018,
      "終": 4019,
      "絃": 4020,
      "組": 4021,
      "絆": 4022,
      "結": 4023,
      "絕": 4024,
      "絞": 4025,
      "絡": 4026,
      "絢": 4027,
      "給": 4028,
      "絨": 4029,
      "絮": 4030,
      "統": 4031,
      "絲": 4032,
      "絳": 4033,
      "絶": 4034,
      "絹": 4035,
      "綁": 4036,
      "綏": 4037,
      "經": 4038,
      "綜": 4039,
      "綠": 4040,
      "綢": 4041,
      "綦": 4042,
      "綫": 4043,
      "綬": 4044,
      "維": 4045,
      "綱": 4046,
      "網": 4047,
      "綴": 4048,
      "綸": 4049,
      "綺": 4050,
      "綻": 4051,
      "綽": 4052,
      "綾": 4053,
      "綿": 4054,
      "緊": 4055,
      "緋": 4056,
      "緒": 4057,
      "線": 4058,
      "緝": 4059,
      "緞": 4060,
      "締": 4061,
      "緣": 4062,
      "編": 4063,
      "緩": 4064,
      "緬": 4065,
      "緯": 4066,
      "練": 4067,
      "緹": 4068,
      "緻": 4069,
      "縉": 4070,
      "縊": 4071,
      "縛": 4072,
      "縣": 4073,
      "縫": 4074,
      "縮": 4075,
      "縱": 4076,
      "縷": 4077,
      "縻": 4078,
      "總": 4079,
      "績": 4080,
      "繁": 4081,
      "繆": 4082,
      "繇": 4083,
      "織": 4084,
      "繕": 4085,
      "繞": 4086,
      "繡": 4087,
      "繩": 4088,
      "繪": 4089,
      "繫": 4090,
      "繭": 4091,
      "繳": 4092,
      "繹": 4093,
      "繼": 4094,
      "纂": 4095,
      "續": 4096,
      "纏": 4097,
      "纓": 4098,
      "纖": 4099,
      "纜": 4100,
      "纠": 4101,
      "红": 4102,
      "纤": 4103,
      "纥": 4104,
      "约": 4105,
      "级": 4106,
      "纪": 4107,
      "纬": 4108,
      "纯": 4109,
      "纱": 4110,
      "纲": 4111,
      "纳": 4112,
      "纵": 4113,
      "纶": 4114,
      "纷": 4115,
      "纸": 4116,
      "纹": 4117,
      "纺": 4118,
      "纽": 4119,
      "线": 4120,
      "练": 4121,
      "组": 4122,
      "绅": 4123,
      "细": 4124,
      "织": 4125,
      "终": 4126,
      "绊": 4127,
      "绍": 4128,
      "绎": 4129,
      "经": 4130,
      "绑": 4131,
      "绒": 4132,
      "结": 4133,
      "绕": 4134,
      "绘": 4135,
      "给": 4136,
      "绚": 4137,
      "绛": 4138,
      "络": 4139,
      "绝": 4140,
      "绞": 4141,
      "统": 4142,
      "绢": 4143,
      "绣": 4144,
      "绥": 4145,
      "继": 4146,
      "绩": 4147,
      "绪": 4148,
      "绫": 4149,
      "续": 4150,
      "绮": 4151,
      "绯": 4152,
      "绰": 4153,
      "绳": 4154,
      "维": 4155,
      "绵": 4156,
      "绶": 4157,
      "绸": 4158,
      "综": 4159,
      "绿": 4160,
      "缀": 4161,
      "缅": 4162,
      "缆": 4163,
      "缉": 4164,
      "缎": 4165,
      "缓": 4166,
      "缔": 4167,
      "缕": 4168,
      "编": 4169,
      "缘": 4170,
      "缙": 4171,
      "缚": 4172,
      "缝": 4173,
      "缠": 4174,
      "缢": 4175,
      "缨": 4176,
      "缩": 4177,
      "缪": 4178,
      "缮": 4179,
      "缴": 4180,
      "缸": 4181,
      "缺": 4182,
      "缽": 4183,
      "罂": 4184,
      "罄": 4185,
      "罐": 4186,
      "网": 4187,
      "罔": 4188,
      "罕": 4189,
      "罗": 4190,
      "罚": 4191,
      "罢": 4192,
      "罩": 4193,
      "罪": 4194,
      "置": 4195,
      "罰": 4196,
      "署": 4197,
      "罵": 4198,
      "罷": 4199,
      "罹": 4200,
      "羁": 4201,
      "羅": 4202,
      "羈": 4203,
      "羊": 4204,
      "羌": 4205,
      "美": 4206,
      "羔": 4207,
      "羚": 4208,
      "羞": 4209,
      "羟": 4210,
      "羡": 4211,
      "羣": 4212,
      "群": 4213,
      "羥": 4214,
      "羧": 4215,
      "羨": 4216,
      "義": 4217,
      "羯": 4218,
      "羰": 4219,
      "羲": 4220,
      "羹": 4221,
      "羽": 4222,
      "翁": 4223,
      "翅": 4224,
      "翊": 4225,
      "翌": 4226,
      "翎": 4227,
      "習": 4228,
      "翔": 4229,
      "翘": 4230,
      "翟": 4231,
      "翠": 4232,
      "翡": 4233,
      "翦": 4234,
      "翩": 4235,
      "翰": 4236,
      "翱": 4237,
      "翹": 4238,
      "翻": 4239,
      "翼": 4240,
      "耀": 4241,
      "老": 4242,
      "考": 4243,
      "者": 4244,
      "耆": 4245,
      "而": 4246,
      "耍": 4247,
      "耐": 4248,
      "耒": 4249,
      "耕": 4250,
      "耗": 4251,
      "耘": 4252,
      "耙": 4253,
      "耦": 4254,
      "耳": 4255,
      "耶": 4256,
      "耸": 4257,
      "耻": 4258,
      "耽": 4259,
      "耿": 4260,
      "聂": 4261,
      "聆": 4262,
      "聊": 4263,
      "聋": 4264,
      "职": 4265,
      "联": 4266,
      "聖": 4267,
      "聘": 4268,
      "聚": 4269,
      "聞": 4270,
      "聪": 4271,
      "聯": 4272,
      "聰": 4273,
      "聲": 4274,
      "聳": 4275,
      "聶": 4276,
      "職": 4277,
      "聽": 4278,
      "聾": 4279,
      "聿": 4280,
      "肃": 4281,
      "肄": 4282,
      "肅": 4283,
      "肆": 4284,
      "肇": 4285,
      "肉": 4286,
      "肋": 4287,
      "肌": 4288,
      "肖": 4289,
      "肘": 4290,
      "肚": 4291,
      "肛": 4292,
      "肝": 4293,
      "肠": 4294,
      "股": 4295,
      "肢": 4296,
      "肤": 4297,
      "肥": 4298,
      "肩": 4299,
      "肪": 4300,
      "肯": 4301,
      "肱": 4302,
      "育": 4303,
      "肴": 4304,
      "肺": 4305,
      "肽": 4306,
      "肾": 4307,
      "肿": 4308,
      "胀": 4309,
      "胁": 4310,
      "胃": 4311,
      "胄": 4312,
      "胆": 4313,
      "背": 4314,
      "胎": 4315,
      "胖": 4316,
      "胚": 4317,
      "胜": 4318,
      "胞": 4319,
      "胡": 4320,
      "胤": 4321,
      "胥": 4322,
      "胪": 4323,
      "胭": 4324,
      "胰": 4325,
      "胱": 4326,
      "胶": 4327,
      "胸": 4328,
      "胺": 4329,
      "能": 4330,
      "脂": 4331,
      "脅": 4332,
      "脆": 4333,
      "脇": 4334,
      "脈": 4335,
      "脉": 4336,
      "脊": 4337,
      "脏": 4338,
      "脐": 4339,
      "脑": 4340,
      "脖": 4341,
      "脚": 4342,
      "脛": 4343,
      "脩": 4344,
      "脫": 4345,
      "脯": 4346,
      "脱": 4347,
      "脷": 4348,
      "脸": 4349,
      "脹": 4350,
      "脾": 4351,
      "腈": 4352,
      "腊": 4353,
      "腋": 4354,
      "腌": 4355,
      "腎": 4356,
      "腐": 4357,
      "腑": 4358,
      "腓": 4359,
      "腔": 4360,
      "腕": 4361,
      "腥": 4362,
      "腦": 4363,
      "腫": 4364,
      "腮": 4365,
      "腰": 4366,
      "腱": 4367,
      "腳": 4368,
      "腸": 4369,
      "腹": 4370,
      "腺": 4371,
      "腻": 4372,
      "腾": 4373,
      "腿": 4374,
      "膀": 4375,
      "膏": 4376,
      "膚": 4377,
      "膛": 4378,
      "膜": 4379,
      "膝": 4380,
      "膠": 4381,
      "膦": 4382,
      "膨": 4383,
      "膩": 4384,
      "膳": 4385,
      "膺": 4386,
      "膽": 4387,
      "膿": 4388,
      "臀": 4389,
      "臂": 4390,
      "臆": 4391,
      "臉": 4392,
      "臍": 4393,
      "臘": 4394,
      "臚": 4395,
      "臟": 4396,
      "臣": 4397,
      "臥": 4398,
      "臧": 4399,
      "臨": 4400,
      "自": 4401,
      "臭": 4402,
      "至": 4403,
      "致": 4404,
      "臺": 4405,
      "臻": 4406,
      "臼": 4407,
      "舂": 4408,
      "舅": 4409,
      "舆": 4410,
      "與": 4411,
      "興": 4412,
      "舉": 4413,
      "舊": 4414,
      "舌": 4415,
      "舍": 4416,
      "舒": 4417,
      "舔": 4418,
      "舖": 4419,
      "舘": 4420,
      "舜": 4421,
      "舞": 4422,
      "舟": 4423,
      "航": 4424,
      "舫": 4425,
      "般": 4426,
      "舰": 4427,
      "舱": 4428,
      "舵": 4429,
      "舶": 4430,
      "舷": 4431,
      "船": 4432,
      "舺": 4433,
      "艇": 4434,
      "艉": 4435,
      "艋": 4436,
      "艏": 4437,
      "艘": 4438,
      "艙": 4439,
      "艦": 4440,
      "艮": 4441,
      "良": 4442,
      "艰": 4443,
      "艱": 4444,
      "色": 4445,
      "艳": 4446,
      "艷": 4447,
      "艺": 4448,
      "艾": 4449,
      "节": 4450,
      "芋": 4451,
      "芎": 4452,
      "芒": 4453,
      "芙": 4454,
      "芜": 4455,
      "芝": 4456,
      "芥": 4457,
      "芦": 4458,
      "芩": 4459,
      "芬": 4460,
      "芭": 4461,
      "芮": 4462,
      "芯": 4463,
      "花": 4464,
      "芳": 4465,
      "芷": 4466,
      "芸": 4467,
      "芹": 4468,
      "芽": 4469,
      "芾": 4470,
      "苇": 4471,
      "苍": 4472,
      "苏": 4473,
      "苑": 4474,
      "苓": 4475,
      "苔": 4476,
      "苗": 4477,
      "苛": 4478,
      "苞": 4479,
      "苟": 4480,
      "苣": 4481,
      "若": 4482,
      "苦": 4483,
      "苯": 4484,
      "英": 4485,
      "苳": 4486,
      "苴": 4487,
      "苷": 4488,
      "苹": 4489,
      "苻": 4490,
      "茂": 4491,
      "范": 4492,
      "茄": 4493,
      "茅": 4494,
      "茉": 4495,
      "茎": 4496,
      "茗": 4497,
      "茛": 4498,
      "茜": 4499,
      "茨": 4500,
      "茫": 4501,
      "茱": 4502,
      "茲": 4503,
      "茴": 4504,
      "茵": 4505,
      "茶": 4506,
      "茸": 4507,
      "茹": 4508,
      "荀": 4509,
      "荃": 4510,
      "荆": 4511,
      "草": 4512,
      "荊": 4513,
      "荐": 4514,
      "荒": 4515,
      "荔": 4516,
      "荖": 4517,
      "荚": 4518,
      "荟": 4519,
      "荡": 4520,
      "荣": 4521,
      "荥": 4522,
      "荧": 4523,
      "荫": 4524,
      "药": 4525,
      "荷": 4526,
      "荻": 4527,
      "荼": 4528,
      "莅": 4529,
      "莆": 4530,
      "莉": 4531,
      "莊": 4532,
      "莎": 4533,
      "莒": 4534,
      "莓": 4535,
      "莖": 4536,
      "莘": 4537,
      "莞": 4538,
      "莢": 4539,
      "莪": 4540,
      "莫": 4541,
      "莱": 4542,
      "莲": 4543,
      "获": 4544,
      "莹": 4545,
      "莺": 4546,
      "莽": 4547,
      "菀": 4548,
      "菁": 4549,
      "菅": 4550,
      "菇": 4551,
      "菈": 4552,
      "菊": 4553,
      "菌": 4554,
      "菏": 4555,
      "菓": 4556,
      "菖": 4557,
      "菜": 4558,
      "菟": 4559,
      "菠": 4560,
      "菩": 4561,
      "華": 4562,
      "菱": 4563,
      "菲": 4564,
      "菴": 4565,
      "菸": 4566,
      "萃": 4567,
      "萄": 4568,
      "萊": 4569,
      "萌": 4570,
      "萍": 4571,
      "萎": 4572,
      "萘": 4573,
      "萝": 4574,
      "萤": 4575,
      "营": 4576,
      "萧": 4577,
      "萨": 4578,
      "萩": 4579,
      "萬": 4580,
      "萱": 4581,
      "萸": 4582,
      "萼": 4583,
      "落": 4584,
      "葆": 4585,
      "葉": 4586,
      "著": 4587,
      "葛": 4588,
      "葡": 4589,
      "董": 4590,
      "葦": 4591,
      "葫": 4592,
      "葬": 4593,
      "葱": 4594,
      "葵": 4595,
      "葺": 4596,
      "蒂": 4597,
      "蒋": 4598,
      "蒐": 4599,
      "蒙": 4600,
      "蒜": 4601,
      "蒞": 4602,
      "蒨": 4603,
      "蒯": 4604,
      "蒲": 4605,
      "蒴": 4606,
      "蒸": 4607,
      "蒼": 4608,
      "蒿": 4609,
      "蓄": 4610,
      "蓉": 4611,
      "蓋": 4612,
      "蓓": 4613,
      "蓝": 4614,
      "蓟": 4615,
      "蓬": 4616,
      "蓮": 4617,
      "蓼": 4618,
      "蔑": 4619,
      "蔓": 4620,
      "蔔": 4621,
      "蔗": 4622,
      "蔚": 4623,
      "蔡": 4624,
      "蔣": 4625,
      "蔥": 4626,
      "蔬": 4627,
      "蔭": 4628,
      "蔵": 4629,
      "蔷": 4630,
      "蔻": 4631,
      "蔽": 4632,
      "蕃": 4633,
      "蕈": 4634,
      "蕉": 4635,
      "蕊": 4636,
      "蕙": 4637,
      "蕨": 4638,
      "蕩": 4639,
      "蕪": 4640,
      "蕭": 4641,
      "蕲": 4642,
      "蕴": 4643,
      "蕾": 4644,
      "薄": 4645,
      "薇": 4646,
      "薈": 4647,
      "薊": 4648,
      "薑": 4649,
      "薔": 4650,
      "薙": 4651,
      "薛": 4652,
      "薦": 4653,
      "薨": 4654,
      "薩": 4655,
      "薪": 4656,
      "薯": 4657,
      "薰": 4658,
      "薹": 4659,
      "藁": 4660,
      "藉": 4661,
      "藍": 4662,
      "藏": 4663,
      "藐": 4664,
      "藓": 4665,
      "藔": 4666,
      "藕": 4667,
      "藜": 4668,
      "藝": 4669,
      "藤": 4670,
      "藥": 4671,
      "藩": 4672,
      "藹": 4673,
      "藻": 4674,
      "蘆": 4675,
      "蘇": 4676,
      "蘊": 4677,
      "蘋": 4678,
      "蘑": 4679,
      "蘚": 4680,
      "蘭": 4681,
      "蘿": 4682,
      "虎": 4683,
      "虏": 4684,
      "虐": 4685,
      "虑": 4686,
      "虔": 4687,
      "處": 4688,
      "虚": 4689,
      "虛": 4690,
      "虜": 4691,
      "虞": 4692,
      "號": 4693,
      "虢": 4694,
      "虧": 4695,
      "虫": 4696,
      "虱": 4697,
      "虹": 4698,
      "虽": 4699,
      "虾": 4700,
      "蚀": 4701,
      "蚁": 4702,
      "蚂": 4703,
      "蚊": 4704,
      "蚌": 4705,
      "蚓": 4706,
      "蚕": 4707,
      "蚜": 4708,
      "蚣": 4709,
      "蚤": 4710,
      "蚩": 4711,
      "蚪": 4712,
      "蚵": 4713,
      "蛇": 4714,
      "蛊": 4715,
      "蛋": 4716,
      "蛙": 4717,
      "蛛": 4718,
      "蛞": 4719,
      "蛟": 4720,
      "蛤": 4721,
      "蛭": 4722,
      "蛮": 4723,
      "蛹": 4724,
      "蛺": 4725,
      "蛻": 4726,
      "蛾": 4727,
      "蜀": 4728,
      "蜂": 4729,
      "蜃": 4730,
      "蜆": 4731,
      "蜈": 4732,
      "蜍": 4733,
      "蜒": 4734,
      "蜓": 4735,
      "蜕": 4736,
      "蜗": 4737,
      "蜘": 4738,
      "蜚": 4739,
      "蜜": 4740,
      "蜡": 4741,
      "蜢": 4742,
      "蜥": 4743,
      "蜱": 4744,
      "蜴": 4745,
      "蜷": 4746,
      "蜻": 4747,
      "蜿": 4748,
      "蝇": 4749,
      "蝉": 4750,
      "蝌": 4751,
      "蝎": 4752,
      "蝓": 4753,
      "蝕": 4754,
      "蝗": 4755,
      "蝙": 4756,
      "蝠": 4757,
      "蝦": 4758,
      "蝨": 4759,
      "蝮": 4760,
      "蝰": 4761,
      "蝴": 4762,
      "蝶": 4763,
      "蝸": 4764,
      "蝽": 4765,
      "螂": 4766,
      "螃": 4767,
      "螈": 4768,
      "融": 4769,
      "螞": 4770,
      "螢": 4771,
      "螯": 4772,
      "螳": 4773,
      "螺": 4774,
      "蟄": 4775,
      "蟆": 4776,
      "蟑": 4777,
      "蟒": 4778,
      "蟠": 4779,
      "蟬": 4780,
      "蟲": 4781,
      "蟹": 4782,
      "蟻": 4783,
      "蟾": 4784,
      "蠅": 4785,
      "蠍": 4786,
      "蠕": 4787,
      "蠟": 4788,
      "蠡": 4789,
      "蠢": 4790,
      "蠣": 4791,
      "蠱": 4792,
      "蠶": 4793,
      "蠻": 4794,
      "血": 4795,
      "衅": 4796,
      "衆": 4797,
      "行": 4798,
      "衍": 4799,
      "術": 4800,
      "衔": 4801,
      "街": 4802,
      "衙": 4803,
      "衛": 4804,
      "衝": 4805,
      "衞": 4806,
      "衡": 4807,
      "衢": 4808,
      "衣": 4809,
      "补": 4810,
      "表": 4811,
      "衫": 4812,
      "衬": 4813,
      "衮": 4814,
      "衰": 4815,
      "衷": 4816,
      "袁": 4817,
      "袂": 4818,
      "袋": 4819,
      "袍": 4820,
      "袒": 4821,
      "袖": 4822,
      "袜": 4823,
      "袞": 4824,
      "被": 4825,
      "袭": 4826,
      "袱": 4827,
      "裁": 4828,
      "裂": 4829,
      "装": 4830,
      "裏": 4831,
      "裔": 4832,
      "裕": 4833,
      "裘": 4834,
      "裙": 4835,
      "補": 4836,
      "裝": 4837,
      "裡": 4838,
      "裤": 4839,
      "裨": 4840,
      "裳": 4841,
      "裴": 4842,
      "裸": 4843,
      "裹": 4844,
      "製": 4845,
      "複": 4846,
      "褐": 4847,
      "褒": 4848,
      "褚": 4849,
      "褪": 4850,
      "褫": 4851,
      "褲": 4852,
      "褶": 4853,
      "褻": 4854,
      "襄": 4855,
      "襟": 4856,
      "襪": 4857,
      "襯": 4858,
      "襲": 4859,
      "西": 4860,
      "要": 4861,
      "覃": 4862,
      "覆": 4863,
      "見": 4864,
      "規": 4865,
      "覓": 4866,
      "視": 4867,
      "親": 4868,
      "覲": 4869,
      "覺": 4870,
      "覽": 4871,
      "觀": 4872,
      "见": 4873,
      "观": 4874,
      "规": 4875,
      "觅": 4876,
      "视": 4877,
      "览": 4878,
      "觉": 4879,
      "觐": 4880,
      "角": 4881,
      "解": 4882,
      "触": 4883,
      "觸": 4884,
      "言": 4885,
      "訂": 4886,
      "計": 4887,
      "訊": 4888,
      "討": 4889,
      "訓": 4890,
      "訖": 4891,
      "託": 4892,
      "記": 4893,
      "訛": 4894,
      "訝": 4895,
      "訟": 4896,
      "訣": 4897,
      "訥": 4898,
      "訪": 4899,
      "設": 4900,
      "許": 4901,
      "訴": 4902,
      "訶": 4903,
      "診": 4904,
      "註": 4905,
      "証": 4906,
      "詐": 4907,
      "詔": 4908,
      "評": 4909,
      "詛": 4910,
      "詞": 4911,
      "詠": 4912,
      "詡": 4913,
      "詢": 4914,
      "詣": 4915,
      "試": 4916,
      "詩": 4917,
      "詭": 4918,
      "詮": 4919,
      "詰": 4920,
      "話": 4921,
      "該": 4922,
      "詳": 4923,
      "詹": 4924,
      "誅": 4925,
      "誇": 4926,
      "誉": 4927,
      "誌": 4928,
      "認": 4929,
      "誓": 4930,
      "誕": 4931,
      "誘": 4932,
      "語": 4933,
      "誠": 4934,
      "誡": 4935,
      "誣": 4936,
      "誤": 4937,
      "誥": 4938,
      "誦": 4939,
      "誨": 4940,
      "說": 4941,
      "説": 4942,
      "誰": 4943,
      "課": 4944,
      "誹": 4945,
      "誼": 4946,
      "調": 4947,
      "談": 4948,
      "請": 4949,
      "諏": 4950,
      "諒": 4951,
      "論": 4952,
      "諜": 4953,
      "諡": 4954,
      "諦": 4955,
      "諧": 4956,
      "諫": 4957,
      "諭": 4958,
      "諮": 4959,
      "諱": 4960,
      "諷": 4961,
      "諸": 4962,
      "諺": 4963,
      "諾": 4964,
      "謀": 4965,
      "謁": 4966,
      "謂": 4967,
      "謊": 4968,
      "謎": 4969,
      "謗": 4970,
      "謙": 4971,
      "謚": 4972,
      "講": 4973,
      "謝": 4974,
      "謠": 4975,
      "謨": 4976,
      "謫": 4977,
      "謬": 4978,
      "謹": 4979,
      "證": 4980,
      "譏": 4981,
      "識": 4982,
      "譙": 4983,
      "譚": 4984,
      "譜": 4985,
      "警": 4986,
      "譬": 4987,
      "譯": 4988,
      "議": 4989,
      "譴": 4990,
      "護": 4991,
      "譽": 4992,
      "讀": 4993,
      "變": 4994,
      "讒": 4995,
      "讓": 4996,
      "讚": 4997,
      "讞": 4998,
      "计": 4999,
      "订": 5000,
      "认": 5001,
      "讥": 5002,
      "讨": 5003,
      "让": 5004,
      "讫": 5005,
      "训": 5006,
      "议": 5007,
      "讯": 5008,
      "记": 5009,
      "讲": 5010,
      "讳": 5011,
      "讶": 5012,
      "讷": 5013,
      "许": 5014,
      "讹": 5015,
      "论": 5016,
      "讼": 5017,
      "讽": 5018,
      "设": 5019,
      "访": 5020,
      "诀": 5021,
      "证": 5022,
      "诃": 5023,
      "评": 5024,
      "诅": 5025,
      "识": 5026,
      "诈": 5027,
      "诉": 5028,
      "诊": 5029,
      "词": 5030,
      "诏": 5031,
      "译": 5032,
      "诒": 5033,
      "试": 5034,
      "诗": 5035,
      "诚": 5036,
      "诛": 5037,
      "话": 5038,
      "诞": 5039,
      "诠": 5040,
      "诡": 5041,
      "询": 5042,
      "诣": 5043,
      "该": 5044,
      "详": 5045,
      "诩": 5046,
      "诫": 5047,
      "诬": 5048,
      "语": 5049,
      "误": 5050,
      "诰": 5051,
      "诱": 5052,
      "诲": 5053,
      "说": 5054,
      "诵": 5055,
      "请": 5056,
      "诸": 5057,
      "诺": 5058,
      "读": 5059,
      "诽": 5060,
      "课": 5061,
      "谁": 5062,
      "调": 5063,
      "谅": 5064,
      "谈": 5065,
      "谊": 5066,
      "谋": 5067,
      "谍": 5068,
      "谎": 5069,
      "谏": 5070,
      "谐": 5071,
      "谒": 5072,
      "谓": 5073,
      "谔": 5074,
      "谕": 5075,
      "谚": 5076,
      "谛": 5077,
      "谜": 5078,
      "谟": 5079,
      "谢": 5080,
      "谣": 5081,
      "谤": 5082,
      "谥": 5083,
      "谦": 5084,
      "谨": 5085,
      "谪": 5086,
      "谬": 5087,
      "谭": 5088,
      "谯": 5089,
      "谱": 5090,
      "谴": 5091,
      "谷": 5092,
      "谿": 5093,
      "豁": 5094,
      "豆": 5095,
      "豈": 5096,
      "豊": 5097,
      "豌": 5098,
      "豎": 5099,
      "豐": 5100,
      "豔": 5101,
      "豚": 5102,
      "象": 5103,
      "豪": 5104,
      "豫": 5105,
      "豬": 5106,
      "豹": 5107,
      "豺": 5108,
      "貂": 5109,
      "貌": 5110,
      "貓": 5111,
      "貝": 5112,
      "貞": 5113,
      "負": 5114,
      "財": 5115,
      "貢": 5116,
      "貧": 5117,
      "貨": 5118,
      "販": 5119,
      "貪": 5120,
      "貫": 5121,
      "責": 5122,
      "貯": 5123,
      "貳": 5124,
      "貴": 5125,
      "貶": 5126,
      "買": 5127,
      "貸": 5128,
      "費": 5129,
      "貼": 5130,
      "貽": 5131,
      "貿": 5132,
      "賀": 5133,
      "賁": 5134,
      "賂": 5135,
      "賃": 5136,
      "賄": 5137,
      "資": 5138,
      "賈": 5139,
      "賊": 5140,
      "賑": 5141,
      "賓": 5142,
      "賜": 5143,
      "賞": 5144,
      "賠": 5145,
      "賢": 5146,
      "賣": 5147,
      "賤": 5148,
      "賦": 5149,
      "質": 5150,
      "賭": 5151,
      "賴": 5152,
      "賺": 5153,
      "購": 5154,
      "賽": 5155,
      "贅": 5156,
      "贈": 5157,
      "贊": 5158,
      "贏": 5159,
      "贓": 5160,
      "贖": 5161,
      "贛": 5162,
      "贝": 5163,
      "贞": 5164,
      "负": 5165,
      "贡": 5166,
      "财": 5167,
      "责": 5168,
      "贤": 5169,
      "败": 5170,
      "账": 5171,
      "货": 5172,
      "质": 5173,
      "贩": 5174,
      "贪": 5175,
      "贫": 5176,
      "贬": 5177,
      "购": 5178,
      "贮": 5179,
      "贯": 5180,
      "贰": 5181,
      "贱": 5182,
      "贲": 5183,
      "贴": 5184,
      "贵": 5185,
      "贷": 5186,
      "贸": 5187,
      "费": 5188,
      "贺": 5189,
      "贻": 5190,
      "贼": 5191,
      "贾": 5192,
      "贿": 5193,
      "赁": 5194,
      "赂": 5195,
      "赃": 5196,
      "资": 5197,
      "赈": 5198,
      "赉": 5199,
      "赋": 5200,
      "赌": 5201,
      "赎": 5202,
      "赏": 5203,
      "赐": 5204,
      "赓": 5205,
      "赔": 5206,
      "赖": 5207,
      "赚": 5208,
      "赛": 5209,
      "赞": 5210,
      "赠": 5211,
      "赢": 5212,
      "赣": 5213,
      "赤": 5214,
      "赦": 5215,
      "赫": 5216,
      "赭": 5217,
      "走": 5218,
      "赴": 5219,
      "赵": 5220,
      "赶": 5221,
      "起": 5222,
      "趁": 5223,
      "超": 5224,
      "越": 5225,
      "趋": 5226,
      "趕": 5227,
      "趙": 5228,
      "趟": 5229,
      "趣": 5230,
      "趨": 5231,
      "足": 5232,
      "趴": 5233,
      "趾": 5234,
      "跃": 5235,
      "跆": 5236,
      "跋": 5237,
      "跌": 5238,
      "跑": 5239,
      "跖": 5240,
      "跛": 5241,
      "距": 5242,
      "跟": 5243,
      "跡": 5244,
      "跤": 5245,
      "跨": 5246,
      "跪": 5247,
      "路": 5248,
      "跳": 5249,
      "践": 5250,
      "跻": 5251,
      "踏": 5252,
      "踐": 5253,
      "踝": 5254,
      "踞": 5255,
      "踢": 5256,
      "踩": 5257,
      "踪": 5258,
      "踴": 5259,
      "踵": 5260,
      "蹂": 5261,
      "蹄": 5262,
      "蹇": 5263,
      "蹈": 5264,
      "蹊": 5265,
      "蹟": 5266,
      "蹤": 5267,
      "蹦": 5268,
      "蹲": 5269,
      "蹴": 5270,
      "蹼": 5271,
      "躁": 5272,
      "躋": 5273,
      "躍": 5274,
      "身": 5275,
      "躬": 5276,
      "躯": 5277,
      "躲": 5278,
      "躺": 5279,
      "軀": 5280,
      "車": 5281,
      "軋": 5282,
      "軌": 5283,
      "軍": 5284,
      "軒": 5285,
      "軛": 5286,
      "軟": 5287,
      "軫": 5288,
      "軸": 5289,
      "軼": 5290,
      "軾": 5291,
      "較": 5292,
      "載": 5293,
      "輒": 5294,
      "輓": 5295,
      "輔": 5296,
      "輕": 5297,
      "輛": 5298,
      "輝": 5299,
      "輟": 5300,
      "輩": 5301,
      "輪": 5302,
      "輯": 5303,
      "輸": 5304,
      "輻": 5305,
      "輾": 5306,
      "輿": 5307,
      "轄": 5308,
      "轅": 5309,
      "轉": 5310,
      "轍": 5311,
      "轎": 5312,
      "轟": 5313,
      "车": 5314,
      "轧": 5315,
      "轨": 5316,
      "轩": 5317,
      "转": 5318,
      "轭": 5319,
      "轮": 5320,
      "软": 5321,
      "轰": 5322,
      "轴": 5323,
      "轶": 5324,
      "轻": 5325,
      "轼": 5326,
      "载": 5327,
      "轿": 5328,
      "较": 5329,
      "辄": 5330,
      "辅": 5331,
      "辆": 5332,
      "辈": 5333,
      "辉": 5334,
      "辍": 5335,
      "辐": 5336,
      "辑": 5337,
      "输": 5338,
      "辕": 5339,
      "辖": 5340,
      "辗": 5341,
      "辙": 5342,
      "辛": 5343,
      "辜": 5344,
      "辞": 5345,
      "辟": 5346,
      "辣": 5347,
      "辦": 5348,
      "辨": 5349,
      "辩": 5350,
      "辭": 5351,
      "辮": 5352,
      "辯": 5353,
      "辰": 5354,
      "辱": 5355,
      "農": 5356,
      "边": 5357,
      "辻": 5358,
      "込": 5359,
      "辽": 5360,
      "达": 5361,
      "迁": 5362,
      "迂": 5363,
      "迄": 5364,
      "迅": 5365,
      "过": 5366,
      "迈": 5367,
      "迎": 5368,
      "运": 5369,
      "近": 5370,
      "返": 5371,
      "还": 5372,
      "这": 5373,
      "进": 5374,
      "远": 5375,
      "违": 5376,
      "连": 5377,
      "迟": 5378,
      "迥": 5379,
      "迦": 5380,
      "迩": 5381,
      "迪": 5382,
      "迫": 5383,
      "迭": 5384,
      "述": 5385,
      "迴": 5386,
      "迷": 5387,
      "迹": 5388,
      "迺": 5389,
      "追": 5390,
      "退": 5391,
      "送": 5392,
      "适": 5393,
      "逃": 5394,
      "逅": 5395,
      "逆": 5396,
      "选": 5397,
      "逊": 5398,
      "逍": 5399,
      "透": 5400,
      "逐": 5401,
      "递": 5402,
      "途": 5403,
      "逕": 5404,
      "逗": 5405,
      "這": 5406,
      "通": 5407,
      "逛": 5408,
      "逝": 5409,
      "逞": 5410,
      "速": 5411,
      "造": 5412,
      "逢": 5413,
      "連": 5414,
      "逮": 5415,
      "週": 5416,
      "進": 5417,
      "逵": 5418,
      "逸": 5419,
      "逻": 5420,
      "逼": 5421,
      "逾": 5422,
      "遁": 5423,
      "遂": 5424,
      "遇": 5425,
      "遊": 5426,
      "運": 5427,
      "遍": 5428,
      "過": 5429,
      "遏": 5430,
      "遐": 5431,
      "道": 5432,
      "達": 5433,
      "違": 5434,
      "遗": 5435,
      "遙": 5436,
      "遜": 5437,
      "遞": 5438,
      "遠": 5439,
      "遣": 5440,
      "遥": 5441,
      "適": 5442,
      "遭": 5443,
      "遮": 5444,
      "遲": 5445,
      "遴": 5446,
      "遵": 5447,
      "遷": 5448,
      "選": 5449,
      "遺": 5450,
      "遼": 5451,
      "遽": 5452,
      "避": 5453,
      "邀": 5454,
      "邁": 5455,
      "邂": 5456,
      "邃": 5457,
      "還": 5458,
      "邇": 5459,
      "邈": 5460,
      "邊": 5461,
      "邏": 5462,
      "邑": 5463,
      "邓": 5464,
      "邕": 5465,
      "邛": 5466,
      "邠": 5467,
      "邢": 5468,
      "那": 5469,
      "邦": 5470,
      "邨": 5471,
      "邪": 5472,
      "邬": 5473,
      "邮": 5474,
      "邯": 5475,
      "邰": 5476,
      "邱": 5477,
      "邳": 5478,
      "邵": 5479,
      "邸": 5480,
      "邹": 5481,
      "邺": 5482,
      "邻": 5483,
      "邾": 5484,
      "郁": 5485,
      "郃": 5486,
      "郊": 5487,
      "郎": 5488,
      "郑": 5489,
      "郗": 5490,
      "郝": 5491,
      "郡": 5492,
      "郢": 5493,
      "郤": 5494,
      "郧": 5495,
      "部": 5496,
      "郭": 5497,
      "郯": 5498,
      "郴": 5499,
      "郵": 5500,
      "郷": 5501,
      "郸": 5502,
      "都": 5503,
      "鄂": 5504,
      "鄉": 5505,
      "鄒": 5506,
      "鄔": 5507,
      "鄙": 5508,
      "鄞": 5509,
      "鄢": 5510,
      "鄧": 5511,
      "鄭": 5512,
      "鄯": 5513,
      "鄰": 5514,
      "鄱": 5515,
      "鄲": 5516,
      "鄴": 5517,
      "鄺": 5518,
      "酉": 5519,
      "酋": 5520,
      "酌": 5521,
      "配": 5522,
      "酐": 5523,
      "酒": 5524,
      "酗": 5525,
      "酚": 5526,
      "酣": 5527,
      "酥": 5528,
      "酪": 5529,
      "酬": 5530,
      "酮": 5531,
      "酯": 5532,
      "酰": 5533,
      "酱": 5534,
      "酵": 5535,
      "酶": 5536,
      "酷": 5537,
      "酸": 5538,
      "酿": 5539,
      "醃": 5540,
      "醇": 5541,
      "醉": 5542,
      "醋": 5543,
      "醍": 5544,
      "醐": 5545,
      "醒": 5546,
      "醚": 5547,
      "醛": 5548,
      "醜": 5549,
      "醣": 5550,
      "醫": 5551,
      "醬": 5552,
      "醮": 5553,
      "醯": 5554,
      "醴": 5555,
      "釀": 5556,
      "釁": 5557,
      "采": 5558,
      "釉": 5559,
      "释": 5560,
      "釋": 5561,
      "里": 5562,
      "重": 5563,
      "野": 5564,
      "量": 5565,
      "釐": 5566,
      "金": 5567,
      "釗": 5568,
      "釘": 5569,
      "釜": 5570,
      "針": 5571,
      "釣": 5572,
      "釧": 5573,
      "釵": 5574,
      "鈉": 5575,
      "鈍": 5576,
      "鈔": 5577,
      "鈕": 5578,
      "鈞": 5579,
      "鈣": 5580,
      "鈦": 5581,
      "鈴": 5582,
      "鈷": 5583,
      "鈺": 5584,
      "鈾": 5585,
      "鉀": 5586,
      "鉄": 5587,
      "鉅": 5588,
      "鉉": 5589,
      "鉑": 5590,
      "鉗": 5591,
      "鉛": 5592,
      "鉞": 5593,
      "鉢": 5594,
      "鉤": 5595,
      "鉴": 5596,
      "鉻": 5597,
      "銀": 5598,
      "銃": 5599,
      "銅": 5600,
      "銓": 5601,
      "銘": 5602,
      "銜": 5603,
      "銨": 5604,
      "銮": 5605,
      "銳": 5606,
      "銷": 5607,
      "銹": 5608,
      "鋁": 5609,
      "鋅": 5610,
      "鋒": 5611,
      "鋤": 5612,
      "鋪": 5613,
      "鋰": 5614,
      "鋸": 5615,
      "鋼": 5616,
      "錄": 5617,
      "錐": 5618,
      "錘": 5619,
      "錠": 5620,
      "錢": 5621,
      "錦": 5622,
      "錨": 5623,
      "錫": 5624,
      "錮": 5625,
      "錯": 5626,
      "録": 5627,
      "錳": 5628,
      "錶": 5629,
      "鍊": 5630,
      "鍋": 5631,
      "鍍": 5632,
      "鍛": 5633,
      "鍵": 5634,
      "鍾": 5635,
      "鎂": 5636,
      "鎊": 5637,
      "鎌": 5638,
      "鎏": 5639,
      "鎔": 5640,
      "鎖": 5641,
      "鎗": 5642,
      "鎚": 5643,
      "鎢": 5644,
      "鎧": 5645,
      "鎬": 5646,
      "鎮": 5647,
      "鎳": 5648,
      "鏈": 5649,
      "鏗": 5650,
      "鏞": 5651,
      "鏟": 5652,
      "鏡": 5653,
      "鏢": 5654,
      "鏽": 5655,
      "鐘": 5656,
      "鐮": 5657,
      "鐳": 5658,
      "鐵": 5659,
      "鐸": 5660,
      "鑄": 5661,
      "鑑": 5662,
      "鑒": 5663,
      "鑣": 5664,
      "鑫": 5665,
      "鑰": 5666,
      "鑲": 5667,
      "鑼": 5668,
      "鑽": 5669,
      "鑾": 5670,
      "鑿": 5671,
      "针": 5672,
      "钉": 5673,
      "钊": 5674,
      "钏": 5675,
      "钓": 5676,
      "钗": 5677,
      "钙": 5678,
      "钚": 5679,
      "钛": 5680,
      "钜": 5681,
      "钝": 5682,
      "钞": 5683,
      "钟": 5684,
      "钠": 5685,
      "钢": 5686,
      "钥": 5687,
      "钦": 5688,
      "钧": 5689,
      "钨": 5690,
      "钩": 5691,
      "钮": 5692,
      "钰": 5693,
      "钱": 5694,
      "钳": 5695,
      "钴": 5696,
      "钵": 5697,
      "钺": 5698,
      "钻": 5699,
      "钾": 5700,
      "铀": 5701,
      "铁": 5702,
      "铂": 5703,
      "铃": 5704,
      "铅": 5705,
      "铉": 5706,
      "铎": 5707,
      "铜": 5708,
      "铝": 5709,
      "铠": 5710,
      "铨": 5711,
      "铬": 5712,
      "铭": 5713,
      "铮": 5714,
      "铲": 5715,
      "铵": 5716,
      "银": 5717,
      "铸": 5718,
      "铺": 5719,
      "链": 5720,
      "销": 5721,
      "锁": 5722,
      "锂": 5723,
      "锄": 5724,
      "锅": 5725,
      "锈": 5726,
      "锋": 5727,
      "锌": 5728,
      "锐": 5729,
      "错": 5730,
      "锚": 5731,
      "锟": 5732,
      "锡": 5733,
      "锣": 5734,
      "锤": 5735,
      "锥": 5736,
      "锦": 5737,
      "锭": 5738,
      "键": 5739,
      "锯": 5740,
      "锰": 5741,
      "锷": 5742,
      "锺": 5743,
      "锻": 5744,
      "镀": 5745,
      "镁": 5746,
      "镇": 5747,
      "镍": 5748,
      "镐": 5749,
      "镑": 5750,
      "镕": 5751,
      "镖": 5752,
      "镛": 5753,
      "镜": 5754,
      "镰": 5755,
      "镶": 5756,
      "長": 5757,
      "长": 5758,
      "門": 5759,
      "閃": 5760,
      "閉": 5761,
      "開": 5762,
      "閏": 5763,
      "閑": 5764,
      "閒": 5765,
      "間": 5766,
      "閔": 5767,
      "閘": 5768,
      "関": 5769,
      "閣": 5770,
      "閤": 5771,
      "閥": 5772,
      "閨": 5773,
      "閩": 5774,
      "閭": 5775,
      "閱": 5776,
      "閻": 5777,
      "闆": 5778,
      "闇": 5779,
      "闊": 5780,
      "闍": 5781,
      "闕": 5782,
      "闖": 5783,
      "關": 5784,
      "闡": 5785,
      "闢": 5786,
      "门": 5787,
      "闪": 5788,
      "闫": 5789,
      "闭": 5790,
      "问": 5791,
      "闯": 5792,
      "闰": 5793,
      "闲": 5794,
      "间": 5795,
      "闵": 5796,
      "闷": 5797,
      "闸": 5798,
      "闹": 5799,
      "闺": 5800,
      "闻": 5801,
      "闽": 5802,
      "闾": 5803,
      "阀": 5804,
      "阁": 5805,
      "阅": 5806,
      "阆": 5807,
      "阇": 5808,
      "阉": 5809,
      "阎": 5810,
      "阐": 5811,
      "阔": 5812,
      "阗": 5813,
      "阙": 5814,
      "阜": 5815,
      "队": 5816,
      "阡": 5817,
      "阪": 5818,
      "阮": 5819,
      "阯": 5820,
      "阱": 5821,
      "防": 5822,
      "阳": 5823,
      "阴": 5824,
      "阵": 5825,
      "阶": 5826,
      "阻": 5827,
      "阿": 5828,
      "陀": 5829,
      "陂": 5830,
      "附": 5831,
      "际": 5832,
      "陆": 5833,
      "陇": 5834,
      "陈": 5835,
      "陋": 5836,
      "陌": 5837,
      "降": 5838,
      "限": 5839,
      "陕": 5840,
      "陛": 5841,
      "陝": 5842,
      "陞": 5843,
      "陟": 5844,
      "陡": 5845,
      "院": 5846,
      "陣": 5847,
      "除": 5848,
      "陨": 5849,
      "险": 5850,
      "陪": 5851,
      "陰": 5852,
      "陲": 5853,
      "陳": 5854,
      "陵": 5855,
      "陶": 5856,
      "陷": 5857,
      "陸": 5858,
      "陽": 5859,
      "隅": 5860,
      "隆": 5861,
      "隈": 5862,
      "隊": 5863,
      "隋": 5864,
      "隍": 5865,
      "階": 5866,
      "随": 5867,
      "隐": 5868,
      "隔": 5869,
      "隕": 5870,
      "隗": 5871,
      "隘": 5872,
      "隙": 5873,
      "際": 5874,
      "障": 5875,
      "隧": 5876,
      "隨": 5877,
      "險": 5878,
      "隱": 5879,
      "隴": 5880,
      "隶": 5881,
      "隷": 5882,
      "隸": 5883,
      "隻": 5884,
      "隼": 5885,
      "隽": 5886,
      "难": 5887,
      "雀": 5888,
      "雁": 5889,
      "雄": 5890,
      "雅": 5891,
      "集": 5892,
      "雇": 5893,
      "雉": 5894,
      "雋": 5895,
      "雌": 5896,
      "雍": 5897,
      "雏": 5898,
      "雒": 5899,
      "雕": 5900,
      "雖": 5901,
      "雙": 5902,
      "雛": 5903,
      "雜": 5904,
      "雞": 5905,
      "離": 5906,
      "難": 5907,
      "雨": 5908,
      "雪": 5909,
      "雯": 5910,
      "雲": 5911,
      "雳": 5912,
      "零": 5913,
      "雷": 5914,
      "雹": 5915,
      "電": 5916,
      "雾": 5917,
      "需": 5918,
      "霄": 5919,
      "霆": 5920,
      "震": 5921,
      "霉": 5922,
      "霍": 5923,
      "霏": 5924,
      "霑": 5925,
      "霓": 5926,
      "霖": 5927,
      "霜": 5928,
      "霞": 5929,
      "霧": 5930,
      "霰": 5931,
      "露": 5932,
      "霸": 5933,
      "霹": 5934,
      "霾": 5935,
      "靂": 5936,
      "靈": 5937,
      "青": 5938,
      "靖": 5939,
      "静": 5940,
      "靚": 5941,
      "靛": 5942,
      "靜": 5943,
      "非": 5944,
      "靠": 5945,
      "靡": 5946,
      "面": 5947,
      "革": 5948,
      "靳": 5949,
      "靴": 5950,
      "靶": 5951,
      "靺": 5952,
      "靼": 5953,
      "鞅": 5954,
      "鞋": 5955,
      "鞍": 5956,
      "鞏": 5957,
      "鞑": 5958,
      "鞘": 5959,
      "鞠": 5960,
      "鞨": 5961,
      "鞭": 5962,
      "韃": 5963,
      "韋": 5964,
      "韌": 5965,
      "韓": 5966,
      "韜": 5967,
      "韦": 5968,
      "韧": 5969,
      "韩": 5970,
      "韬": 5971,
      "韭": 5972,
      "音": 5973,
      "韵": 5974,
      "韶": 5975,
      "韻": 5976,
      "響": 5977,
      "頁": 5978,
      "頂": 5979,
      "頃": 5980,
      "項": 5981,
      "順": 5982,
      "須": 5983,
      "頌": 5984,
      "預": 5985,
      "頑": 5986,
      "頒": 5987,
      "頓": 5988,
      "頗": 5989,
      "領": 5990,
      "頜": 5991,
      "頡": 5992,
      "頤": 5993,
      "頭": 5994,
      "頰": 5995,
      "頸": 5996,
      "頹": 5997,
      "頻": 5998,
      "顆": 5999,
      "題": 6000,
      "額": 6001,
      "顎": 6002,
      "顏": 6003,
      "顒": 6004,
      "顔": 6005,
      "顗": 6006,
      "願": 6007,
      "顛": 6008,
      "類": 6009,
      "顧": 6010,
      "顫": 6011,
      "顯": 6012,
      "顱": 6013,
      "页": 6014,
      "顶": 6015,
      "顷": 6016,
      "项": 6017,
      "顺": 6018,
      "须": 6019,
      "顽": 6020,
      "顾": 6021,
      "顿": 6022,
      "颁": 6023,
      "颂": 6024,
      "预": 6025,
      "颅": 6026,
      "领": 6027,
      "颇": 6028,
      "颈": 6029,
      "颉": 6030,
      "颊": 6031,
      "颌": 6032,
      "颍": 6033,
      "颐": 6034,
      "频": 6035,
      "颓": 6036,
      "颖": 6037,
      "颗": 6038,
      "题": 6039,
      "颚": 6040,
      "颜": 6041,
      "额": 6042,
      "颠": 6043,
      "颤": 6044,
      "風": 6045,
      "颱": 6046,
      "颶": 6047,
      "飄": 6048,
      "飆": 6049,
      "风": 6050,
      "飓": 6051,
      "飘": 6052,
      "飙": 6053,
      "飛": 6054,
      "飞": 6055,
      "食": 6056,
      "飢": 6057,
      "飪": 6058,
      "飯": 6059,
      "飲": 6060,
      "飼": 6061,
      "飽": 6062,
      "飾": 6063,
      "餅": 6064,
      "餉": 6065,
      "養": 6066,
      "餌": 6067,
      "餐": 6068,
      "餓": 6069,
      "餘": 6070,
      "餚": 6071,
      "餡": 6072,
      "館": 6073,
      "餵": 6074,
      "餾": 6075,
      "饋": 6076,
      "饑": 6077,
      "饒": 6078,
      "饗": 6079,
      "饥": 6080,
      "饪": 6081,
      "饭": 6082,
      "饮": 6083,
      "饰": 6084,
      "饱": 6085,
      "饲": 6086,
      "饵": 6087,
      "饶": 6088,
      "饷": 6089,
      "饼": 6090,
      "饿": 6091,
      "馀": 6092,
      "馅": 6093,
      "馆": 6094,
      "馈": 6095,
      "馏": 6096,
      "首": 6097,
      "香": 6098,
      "馥": 6099,
      "馨": 6100,
      "馬": 6101,
      "馭": 6102,
      "馮": 6103,
      "馱": 6104,
      "馳": 6105,
      "馴": 6106,
      "駁": 6107,
      "駐": 6108,
      "駒": 6109,
      "駕": 6110,
      "駙": 6111,
      "駛": 6112,
      "駝": 6113,
      "駭": 6114,
      "駱": 6115,
      "駿": 6116,
      "騎": 6117,
      "騙": 6118,
      "騫": 6119,
      "騰": 6120,
      "騷": 6121,
      "驃": 6122,
      "驅": 6123,
      "驊": 6124,
      "驍": 6125,
      "驒": 6126,
      "驕": 6127,
      "驗": 6128,
      "驚": 6129,
      "驛": 6130,
      "驟": 6131,
      "驢": 6132,
      "驤": 6133,
      "驥": 6134,
      "驪": 6135,
      "马": 6136,
      "驭": 6137,
      "驮": 6138,
      "驯": 6139,
      "驰": 6140,
      "驱": 6141,
      "驳": 6142,
      "驴": 6143,
      "驶": 6144,
      "驸": 6145,
      "驹": 6146,
      "驻": 6147,
      "驼": 6148,
      "驾": 6149,
      "驿": 6150,
      "骁": 6151,
      "骂": 6152,
      "骄": 6153,
      "骅": 6154,
      "骆": 6155,
      "骇": 6156,
      "骊": 6157,
      "验": 6158,
      "骏": 6159,
      "骑": 6160,
      "骗": 6161,
      "骚": 6162,
      "骞": 6163,
      "骠": 6164,
      "骤": 6165,
      "骥": 6166,
      "骧": 6167,
      "骨": 6168,
      "骰": 6169,
      "骷": 6170,
      "骸": 6171,
      "骼": 6172,
      "髅": 6173,
      "髏": 6174,
      "髒": 6175,
      "髓": 6176,
      "體": 6177,
      "高": 6178,
      "髦": 6179,
      "髮": 6180,
      "髯": 6181,
      "髻": 6182,
      "鬃": 6183,
      "鬆": 6184,
      "鬍": 6185,
      "鬚": 6186,
      "鬣": 6187,
      "鬥": 6188,
      "鬧": 6189,
      "鬱": 6190,
      "鬼": 6191,
      "魁": 6192,
      "魂": 6193,
      "魄": 6194,
      "魅": 6195,
      "魏": 6196,
      "魔": 6197,
      "魚": 6198,
      "魨": 6199,
      "魮": 6200,
      "魯": 6201,
      "魷": 6202,
      "鮃": 6203,
      "鮋": 6204,
      "鮑": 6205,
      "鮟": 6206,
      "鮠": 6207,
      "鮡": 6208,
      "鮨": 6209,
      "鮫": 6210,
      "鮭": 6211,
      "鮮": 6212,
      "鯉": 6213,
      "鯊": 6214,
      "鯖": 6215,
      "鯙": 6216,
      "鯛": 6217,
      "鯡": 6218,
      "鯤": 6219,
      "鯨": 6220,
      "鯰": 6221,
      "鯽": 6222,
      "鰂": 6223,
      "鰈": 6224,
      "鰍": 6225,
      "鰓": 6226,
      "鰕": 6227,
      "鰨": 6228,
      "鰭": 6229,
      "鰲": 6230,
      "鰻": 6231,
      "鱂": 6232,
      "鱇": 6233,
      "鱈": 6234,
      "鱉": 6235,
      "鱒": 6236,
      "鱔": 6237,
      "鱗": 6238,
      "鱧": 6239,
      "鱨": 6240,
      "鱲": 6241,
      "鱷": 6242,
      "鱸": 6243,
      "鱼": 6244,
      "鲁": 6245,
      "鲈": 6246,
      "鲍": 6247,
      "鲜": 6248,
      "鲤": 6249,
      "鲨": 6250,
      "鲫": 6251,
      "鲱": 6252,
      "鲷": 6253,
      "鲸": 6254,
      "鳃": 6255,
      "鳄": 6256,
      "鳅": 6257,
      "鳉": 6258,
      "鳌": 6259,
      "鳍": 6260,
      "鳕": 6261,
      "鳖": 6262,
      "鳗": 6263,
      "鳚": 6264,
      "鳞": 6265,
      "鳥": 6266,
      "鳩": 6267,
      "鳳": 6268,
      "鳴": 6269,
      "鳶": 6270,
      "鴉": 6271,
      "鴛": 6272,
      "鴞": 6273,
      "鴦": 6274,
      "鴨": 6275,
      "鴻": 6276,
      "鴿": 6277,
      "鵑": 6278,
      "鵙": 6279,
      "鵜": 6280,
      "鵝": 6281,
      "鵡": 6282,
      "鵬": 6283,
      "鵰": 6284,
      "鵲": 6285,
      "鶇": 6286,
      "鶯": 6287,
      "鶴": 6288,
      "鷗": 6289,
      "鷲": 6290,
      "鷹": 6291,
      "鷺": 6292,
      "鸚": 6293,
      "鸞": 6294,
      "鸟": 6295,
      "鸠": 6296,
      "鸡": 6297,
      "鸢": 6298,
      "鸣": 6299,
      "鸥": 6300,
      "鸦": 6301,
      "鸫": 6302,
      "鸭": 6303,
      "鸮": 6304,
      "鸯": 6305,
      "鸳": 6306,
      "鸽": 6307,
      "鸾": 6308,
      "鸿": 6309,
      "鹃": 6310,
      "鹅": 6311,
      "鹉": 6312,
      "鹊": 6313,
      "鹏": 6314,
      "鹘": 6315,
      "鹛": 6316,
      "鹤": 6317,
      "鹦": 6318,
      "鹫": 6319,
      "鹭": 6320,
      "鹰": 6321,
      "鹵": 6322,
      "鹹": 6323,
      "鹼": 6324,
      "鹽": 6325,
      "鹿": 6326,
      "麋": 6327,
      "麒": 6328,
      "麓": 6329,
      "麗": 6330,
      "麝": 6331,
      "麟": 6332,
      "麥": 6333,
      "麦": 6334,
      "麴": 6335,
      "麵": 6336,
      "麻": 6337,
      "麼": 6338,
      "麽": 6339,
      "麾": 6340,
      "黃": 6341,
      "黄": 6342,
      "黍": 6343,
      "黎": 6344,
      "黏": 6345,
      "黑": 6346,
      "黒": 6347,
      "黔": 6348,
      "默": 6349,
      "黛": 6350,
      "黜": 6351,
      "點": 6352,
      "黨": 6353,
      "黯": 6354,
      "黴": 6355,
      "鼎": 6356,
      "鼐": 6357,
      "鼓": 6358,
      "鼠": 6359,
      "鼩": 6360,
      "鼬": 6361,
      "鼻": 6362,
      "齊": 6363,
      "齋": 6364,
      "齐": 6365,
      "齒": 6366,
      "齡": 6367,
      "齣": 6368,
      "齦": 6369,
      "齧": 6370,
      "齿": 6371,
      "龄": 6372,
      "龍": 6373,
      "龐": 6374,
      "龔": 6375,
      "龕": 6376,
      "龙": 6377,
      "龚": 6378,
      "龛": 6379,
      "龜": 6380,
      "龟": 6381,
      "龢": 6382,
      "︰": 6383,
      "﹐": 6384,
      "﹑": 6385,
      "﹔": 6386,
      "﹕": 6387,
      "﹝": 6388,
      "﹞": 6389,
      "！": 6390,
      "＂": 6391,
      "％": 6392,
      "＆": 6393,
      "（": 6394,
      "）": 6395,
      "＊": 6396,
      "＋": 6397,
      "，": 6398,
      "－": 6399,
      "．": 6400,
      "／": 6401,
      "１": 6402,
      "２": 6403,
      "３": 6404,
      "４": 6405,
      "：": 6406,
      "；": 6407,
      "＜": 6408,
      "＝": 6409,
      "＞": 6410,
      "？": 6411,
      "［": 6412,
      "］": 6413,
      "～": 6414,
      "｢": 6415,
      "｣": 6416,
      "de": 6417,
      "the": 6418,
      "in": 6419,
      "##s": 6420,
      "of": 6421,
      "la": 6422,
      "en": 6423,
      "and": 6424,
      "##e": 6425,
      "##a": 6426,
      "to": 6427,
      "##n": 6428,
      "##i": 6429,
      "The": 6430,
      "der": 6431,
      "un": 6432,
      "di": 6433,
      "##t": 6434,
      "is": 6435,
      "el": 6436,
      "se": 6437,
      "del": 6438,
      "die": 6439,
      "##r": 6440,
      "und": 6441,
      "et": 6442,
      "na": 6443,
      "##o": 6444,
      "was": 6445,
      "on": 6446,
      "##en": 6447,
      "##u": 6448,
      "des": 6449,
      "den": 6450,
      "le": 6451,
      "for": 6452,
      "da": 6453,
      "van": 6454,
      "as": 6455,
      "##m": 6456,
      "sa": 6457,
      "do": 6458,
      "10": 6459,
      "an": 6460,
      "les": 6461,
      "by": 6462,
      "##y": 6463,
      "2011": 6464,
      "La": 6465,
      "at": 6466,
      "##l": 6467,
      "##d": 6468,
      "er": 6469,
      "al": 6470,
      "##er": 6471,
      "von": 6472,
      "In": 6473,
      "du": 6474,
      "with": 6475,
      "##es": 6476,
      "con": 6477,
      "##k": 6478,
      "2010": 6479,
      "per": 6480,
      "2000": 6481,
      "2012": 6482,
      "12": 6483,
      "from": 6484,
      "that": 6485,
      "De": 6486,
      "no": 6487,
      "11": 6488,
      "2014": 6489,
      "2009": 6490,
      "es": 6491,
      "20": 6492,
      "su": 6493,
      "ISBN": 6494,
      "ja": 6495,
      "2007": 6496,
      "2008": 6497,
      "km": 6498,
      "##an": 6499,
      "2013": 6500,
      "15": 6501,
      "im": 6502,
      "com": 6503,
      "##ta": 6504,
      "2006": 6505,
      "##te": 6506,
      "18": 6507,
      "##na": 6508,
      "para": 6509,
      "2015": 6510,
      "El": 6511,
      "his": 6512,
      "ha": 6513,
      "##da": 6514,
      "##ing": 6515,
      "24": 6516,
      "Den": 6517,
      "Die": 6518,
      "##h": 6519,
      "##ne": 6520,
      "##g": 6521,
      "En": 6522,
      "30": 6523,
      "##in": 6524,
      "##re": 6525,
      "14": 6526,
      "13": 6527,
      "16": 6528,
      "##us": 6529,
      "2005": 6530,
      "##de": 6531,
      "2016": 6532,
      "au": 6533,
      "25": 6534,
      "000": 6535,
      "he": 6536,
      "che": 6537,
      "##on": 6538,
      "2004": 6539,
      "em": 6540,
      "##ch": 6541,
      "19": 6542,
      "it": 6543,
      "2001": 6544,
      "17": 6545,
      "°C": 6546,
      "2002": 6547,
      "han": 6548,
      "##ia": 6549,
      "Le": 6550,
      "Il": 6551,
      "##le": 6552,
      "della": 6553,
      "New": 6554,
      "##ra": 6555,
      "##is": 6556,
      "si": 6557,
      "2003": 6558,
      "21": 6559,
      "var": 6560,
      "are": 6561,
      "2017": 6562,
      "op": 6563,
      "##z": 6564,
      "22": 6565,
      "für": 6566,
      "##et": 6567,
      "were": 6568,
      "##os": 6569,
      "An": 6570,
      "26": 6571,
      "World": 6572,
      "##do": 6573,
      "which": 6574,
      "##ja": 6575,
      "va": 6576,
      "ve": 6577,
      "1999": 6578,
      "##ti": 6579,
      "sur": 6580,
      "23": 6581,
      "##la": 6582,
      "##é": 6583,
      "II": 6584,
      "##ed": 6585,
      "Life": 6586,
      "war": 6587,
      "##to": 6588,
      "##se": 6589,
      "##ni": 6590,
      "##no": 6591,
      "or": 6592,
      "be": 6593,
      "28": 6594,
      "##c": 6595,
      "##ar": 6596,
      "He": 6597,
      "te": 6598,
      "##va": 6599,
      "1998": 6600,
      "27": 6601,
      "mm": 6602,
      "##nt": 6603,
      "##ma": 6604,
      "##ka": 6605,
      "had": 6606,
      "##ng": 6607,
      "It": 6608,
      "also": 6609,
      "so": 6610,
      "##je": 6611,
      "29": 6612,
      "1996": 6613,
      "##li": 6614,
      "1997": 6615,
      "am": 6616,
      "has": 6617,
      "km²": 6618,
      "##ie": 6619,
      "##ri": 6620,
      "##as": 6621,
      "University": 6622,
      "lo": 6623,
      "100": 6624,
      "##p": 6625,
      "31": 6626,
      "ni": 6627,
      "##al": 6628,
      "##j": 6629,
      "##ce": 6630,
      "1990": 6631,
      "John": 6632,
      "first": 6633,
      "##ca": 6634,
      "##ment": 6635,
      "met": 6636,
      "2018": 6637,
      "all": 6638,
      "1995": 6639,
      "##ko": 6640,
      "1991": 6641,
      "##ó": 6642,
      "1994": 6643,
      "Der": 6644,
      "non": 6645,
      "##si": 6646,
      "1992": 6647,
      "##em": 6648,
      "##ly": 6649,
      "their": 6650,
      "ar": 6651,
      "##b": 6652,
      "50": 6653,
      "1993": 6654,
      "one": 6655,
      "##um": 6656,
      "##sa": 6657,
      "Les": 6658,
      "San": 6659,
      "not": 6660,
      "but": 6661,
      "its": 6662,
      "##v": 6663,
      "who": 6664,
      "York": 6665,
      "##ga": 6666,
      "##ς": 6667,
      "her": 6668,
      "##it": 6669,
      "over": 6670,
      "www": 6671,
      "dei": 6672,
      "##mi": 6673,
      "##ki": 6674,
      "po": 6675,
      "History": 6676,
      "UK": 6677,
      "1989": 6678,
      "##ge": 6679,
      "##at": 6680,
      "have": 6681,
      "this": 6682,
      "40": 6683,
      "American": 6684,
      "##ba": 6685,
      "1980": 6686,
      "ed": 6687,
      "##í": 6688,
      "##ur": 6689,
      "1988": 6690,
      "ya": 6691,
      "##ke": 6692,
      "two": 6693,
      "ne": 6694,
      "http": 6695,
      "Ang": 6696,
      "##st": 6697,
      "##ro": 6698,
      "Press": 6699,
      "##el": 6700,
      "under": 6701,
      "##f": 6702,
      "On": 6703,
      "1986": 6704,
      "1987": 6705,
      "1985": 6706,
      "978": 6707,
      "##man": 6708,
      "been": 6709,
      "1984": 6710,
      "##ci": 6711,
      "Saint": 6712,
      "##ul": 6713,
      "1970": 6714,
      "United": 6715,
      "##ve": 6716,
      "##me": 6717,
      "Los": 6718,
      "Michael": 6719,
      "##den": 6720,
      "##の": 6721,
      "time": 6722,
      "##za": 6723,
      "##io": 6724,
      "NASA": 6725,
      "1982": 6726,
      "1983": 6727,
      "III": 6728,
      "1981": 6729,
      "National": 6730,
      "No": 6731,
      "##á": 6732,
      "after": 6733,
      "1975": 6734,
      "Det": 6735,
      "##or": 6736,
      "part": 6737,
      "01": 6738,
      "1945": 6739,
      "dia": 6740,
      "Das": 6741,
      "1979": 6742,
      "1972": 6743,
      "##ya": 6744,
      "red": 6745,
      "##ten": 6746,
      "other": 6747,
      "Na": 6748,
      "##x": 6749,
      "France": 6750,
      "they": 6751,
      "##om": 6752,
      "1978": 6753,
      "William": 6754,
      "1968": 6755,
      "1960": 6756,
      "##di": 6757,
      "1976": 6758,
      "##kan": 6759,
      "##ek": 6760,
      "into": 6761,
      "60": 6762,
      "##ak": 6763,
      "##lo": 6764,
      "##ung": 6765,
      "06": 6766,
      "1977": 6767,
      "1974": 6768,
      "1973": 6769,
      "May": 6770,
      "Paris": 6771,
      "##2": 6772,
      "ka": 6773,
      "##S": 6774,
      "1971": 6775,
      "org": 6776,
      "Mer": 6777,
      "August": 6778,
      "##A": 6779,
      "up": 6780,
      "ng": 6781,
      "This": 6782,
      "new": 6783,
      "##ny": 6784,
      "500": 6785,
      "##ho": 6786,
      "##1": 6787,
      "##ju": 6788,
      "1969": 6789,
      "Jean": 6790,
      "International": 6791,
      "Paul": 6792,
      "City": 6793,
      "##lar": 6794,
      "##ji": 6795,
      "200": 6796,
      "April": 6797,
      "ce": 6798,
      "sin": 6799,
      "Im": 6800,
      "##go": 6801,
      "more": 6802,
      "1967": 6803,
      "35": 6804,
      "David": 6805,
      "##ts": 6806,
      "US": 6807,
      "1950": 6808,
      "##co": 6809,
      "TV": 6810,
      "04": 6811,
      "##ler": 6812,
      "man": 6813,
      "Han": 6814,
      "Robert": 6815,
      "##tion": 6816,
      "ma": 6817,
      "1944": 6818,
      "45": 6819,
      "1962": 6820,
      "London": 6821,
      "05": 6822,
      "80": 6823,
      "she": 6824,
      "##ir": 6825,
      "St": 6826,
      "1965": 6827,
      "ad": 6828,
      "when": 6829,
      "32": 6830,
      "65": 6831,
      "##ku": 6832,
      "cu": 6833,
      "years": 6834,
      "1964": 6835,
      "1966": 6836,
      "##C": 6837,
      "States": 6838,
      "NGC": 6839,
      "Het": 6840,
      "##ze": 6841,
      "##w": 6842,
      "1961": 6843,
      "##ter": 6844,
      "07": 6845,
      "ki": 6846,
      "1941": 6847,
      "As": 6848,
      "Al": 6849,
      "##3": 6850,
      "##ë": 6851,
      "County": 6852,
      "1940": 6853,
      "##ns": 6854,
      "only": 6855,
      "would": 6856,
      "1939": 6857,
      "##ik": 6858,
      "##が": 6859,
      "James": 6860,
      "##ers": 6861,
      "1963": 6862,
      "03": 6863,
      "##ry": 6864,
      "me": 6865,
      "Es": 6866,
      "Er": 6867,
      "##sen": 6868,
      "90": 6869,
      "##des": 6870,
      "##ha": 6871,
      "70": 6872,
      "year": 6873,
      "Charles": 6874,
      "##ban": 6875,
      "##0": 6876,
      "pa": 6877,
      "during": 6878,
      "where": 6879,
      "ze": 6880,
      "##rs": 6881,
      "can": 6882,
      "1958": 6883,
      "between": 6884,
      "out": 6885,
      "George": 6886,
      "##ben": 6887,
      "##ren": 6888,
      "##sta": 6889,
      "1956": 6890,
      "##rt": 6891,
      "about": 6892,
      "Peter": 6893,
      "1959": 6894,
      "02": 6895,
      "School": 6896,
      "1943": 6897,
      "##tu": 6898,
      "most": 6899,
      "33": 6900,
      "three": 6901,
      "1948": 6902,
      "fu": 6903,
      "##am": 6904,
      "##ou": 6905,
      "##4": 6906,
      "Earth": 6907,
      "##ä": 6908,
      "1942": 6909,
      "made": 6910,
      "##ria": 6911,
      "ye": 6912,
      "##ov": 6913,
      "00": 6914,
      "1957": 6915,
      "1930": 6916,
      "1920": 6917,
      "##il": 6918,
      "used": 6919,
      "1954": 6920,
      "##mo": 6921,
      "09": 6922,
      "##wa": 6923,
      "Un": 6924,
      "##jo": 6925,
      "##ica": 6926,
      "##be": 6927,
      "Se": 6928,
      "##ion": 6929,
      "such": 6930,
      "08": 6931,
      "36": 6932,
      "South": 6933,
      "ta": 6934,
      "then": 6935,
      "USA": 6936,
      "##ken": 6937,
      "1946": 6938,
      "You": 6939,
      "Maria": 6940,
      "##ina": 6941,
      "34": 6942,
      "1955": 6943,
      "League": 6944,
      "##land": 6945,
      "1938": 6946,
      "##lla": 6947,
      "than": 6948,
      "nu": 6949,
      "1953": 6950,
      "##ine": 6951,
      "##T": 6952,
      "300": 6953,
      "IV": 6954,
      "1949": 6955,
      "Thomas": 6956,
      "1918": 6957,
      "India": 6958,
      "1952": 6959,
      "All": 6960,
      "State": 6961,
      "##un": 6962,
      "Oxford": 6963,
      "1947": 6964,
      "Richard": 6965,
      "##che": 6966,
      "June": 6967,
      "team": 6968,
      "Az": 6969,
      "1936": 6970,
      "44": 6971,
      "##P": 6972,
      "##ner": 6973,
      "##ic": 6974,
      "second": 6975,
      "ca": 6976,
      "Retrieved": 6977,
      "##ok": 6978,
      "##ig": 6979,
      "##th": 6980,
      "March": 6981,
      "##nu": 6982,
      "She": 6983,
      "some": 6984,
      "##ada": 6985,
      "Santa": 6986,
      "there": 6987,
      "##ste": 6988,
      "##ut": 6989,
      "British": 6990,
      "pe": 6991,
      "Film": 6992,
      "ke": 6993,
      "West": 6994,
      "data": 6995,
      "##5": 6996,
      "area": 6997,
      "co": 6998,
      "38": 6999,
      "1937": 7000,
      "400": 7001,
      "any": 7002,
      "##dos": 7003,
      "##ton": 7004,
      "##que": 7005,
      "place": 7006,
      "##ty": 7007,
      "##tes": 7008,
      "1951": 7009,
      "##ble": 7010,
      "37": 7011,
      "##das": 7012,
      "well": 7013,
      "cm": 7014,
      "##gi": 7015,
      "##6": 7016,
      "##nen": 7017,
      "General": 7018,
      "through": 7019,
      "being": 7020,
      "North": 7021,
      "##nte": 7022,
      "##ll": 7023,
      "##ea": 7024,
      "##res": 7025,
      "Martin": 7026,
      "##ant": 7027,
      "Park": 7028,
      "##vo": 7029,
      "##né": 7030,
      "1933": 7031,
      "Love": 7032,
      "##id": 7033,
      "##ssa": 7034,
      "Po": 7035,
      "Society": 7036,
      "cho": 7037,
      "##E": 7038,
      "##ck": 7039,
      "tra": 7040,
      "##les": 7041,
      "##ning": 7042,
      "##lle": 7043,
      "1935": 7044,
      "##R": 7045,
      "##B": 7046,
      "42": 7047,
      "War": 7048,
      "##gen": 7049,
      "##I": 7050,
      "##zi": 7051,
      "1934": 7052,
      "pro": 7053,
      "1919": 7054,
      "Em": 7055,
      "##ot": 7056,
      "##ist": 7057,
      "64": 7058,
      "##nie": 7059,
      "48": 7060,
      "After": 7061,
      "39": 7062,
      "##der": 7063,
      "##7": 7064,
      "1914": 7065,
      "pp": 7066,
      "##vi": 7067,
      "##に": 7068,
      "Club": 7069,
      "Music": 7070,
      "Grand": 7071,
      "ci": 7072,
      "name": 7073,
      "Museum": 7074,
      "against": 7075,
      "1932": 7076,
      "Louis": 7077,
      "##nia": 7078,
      "1929": 7079,
      "will": 7080,
      "One": 7081,
      "bi": 7082,
      "Man": 7083,
      "1928": 7084,
      "them": 7085,
      "ai": 7086,
      "##berg": 7087,
      "41": 7088,
      "##pe": 7089,
      "world": 7090,
      "ab": 7091,
      "55": 7092,
      "##pa": 7093,
      "before": 7094,
      "family": 7095,
      "series": 7096,
      "won": 7097,
      "1917": 7098,
      "##L": 7099,
      "43": 7100,
      "while": 7101,
      "##9": 7102,
      "José": 7103,
      "single": 7104,
      "Joseph": 7105,
      "##nde": 7106,
      "1931": 7107,
      "may": 7108,
      "state": 7109,
      "##tas": 7110,
      "Records": 7111,
      "school": 7112,
      "##8": 7113,
      "Art": 7114,
      "For": 7115,
      "##ski": 7116,
      "##O": 7117,
      "##ent": 7118,
      "both": 7119,
      "47": 7120,
      "1924": 7121,
      "75": 7122,
      "##men": 7123,
      "ex": 7124,
      "work": 7125,
      "people": 7126,
      "##lu": 7127,
      "America": 7128,
      "Lake": 7129,
      "1927": 7130,
      "##ky": 7131,
      "##ger": 7132,
      "##G": 7133,
      "College": 7134,
      "Union": 7135,
      "Ny": 7136,
      "##du": 7137,
      "1922": 7138,
      "1925": 7139,
      "##ura": 7140,
      "1921": 7141,
      "To": 7142,
      "wa": 7143,
      "1926": 7144,
      "Van": 7145,
      "##ii": 7146,
      "##sk": 7147,
      "##ol": 7148,
      "##ā": 7149,
      "##ska": 7150,
      "number": 7151,
      "##ad": 7152,
      "##D": 7153,
      "##nes": 7154,
      "bu": 7155,
      "Am": 7156,
      "1912": 7157,
      "System": 7158,
      "Award": 7159,
      "King": 7160,
      "##M": 7161,
      "Las": 7162,
      "1923": 7163,
      "51": 7164,
      "52": 7165,
      "##tt": 7166,
      "46": 7167,
      "FC": 7168,
      "##by": 7169,
      "##lt": 7170,
      "##nd": 7171,
      "##N": 7172,
      "##ien": 7173,
      "##ai": 7174,
      "Cup": 7175,
      "House": 7176,
      "##F": 7177,
      "1900": 7178,
      "end": 7179,
      "River": 7180,
      "49": 7181,
      "Sie": 7182,
      "city": 7183,
      "1910": 7184,
      "Washington": 7185,
      "##ach": 7186,
      "##は": 7187,
      "Me": 7188,
      "My": 7189,
      "##are": 7190,
      "China": 7191,
      "Tour": 7192,
      "Royal": 7193,
      "His": 7194,
      "##son": 7195,
      "Henry": 7196,
      "##ert": 7197,
      "1913": 7198,
      "##len": 7199,
      "Pierre": 7200,
      "based": 7201,
      "Dr": 7202,
      "li": 7203,
      "English": 7204,
      "##ron": 7205,
      "California": 7206,
      "##ita": 7207,
      "##ies": 7208,
      "##ire": 7209,
      "56": 7210,
      "##ian": 7211,
      "##ana": 7212,
      "Canada": 7213,
      "##ú": 7214,
      "re": 7215,
      "##cht": 7216,
      "Red": 7217,
      "##he": 7218,
      "##bi": 7219,
      "CD": 7220,
      "IC": 7221,
      "54": 7222,
      "game": 7223,
      "##と": 7224,
      "##ン": 7225,
      "##so": 7226,
      "Smith": 7227,
      "##ks": 7228,
      "##ud": 7229,
      "##ru": 7230,
      "1915": 7231,
      "public": 7232,
      "Juan": 7233,
      "long": 7234,
      "They": 7235,
      "At": 7236,
      "England": 7237,
      "##q": 7238,
      "Air": 7239,
      "##au": 7240,
      "##ier": 7241,
      "##cy": 7242,
      "##mu": 7243,
      "Center": 7244,
      "BBC": 7245,
      "There": 7246,
      "##ida": 7247,
      "Australia": 7248,
      "Best": 7249,
      "##K": 7250,
      "1911": 7251,
      "Company": 7252,
      "Don": 7253,
      "Si": 7254,
      "##ls": 7255,
      "Black": 7256,
      "Association": 7257,
      "53": 7258,
      "Christian": 7259,
      "##im": 7260,
      "use": 7261,
      "84": 7262,
      "these": 7263,
      "Hall": 7264,
      "150": 7265,
      "Europe": 7266,
      "Hans": 7267,
      "Festival": 7268,
      "##ini": 7269,
      "##V": 7270,
      "UTC": 7271,
      "##han": 7272,
      "go": 7273,
      "Mai": 7274,
      "1916": 7275,
      "system": 7276,
      "##bo": 7277,
      "Do": 7278,
      "Daniel": 7279,
      "group": 7280,
      "600": 7281,
      "Francisco": 7282,
      "Jan": 7283,
      "##ation": 7284,
      "1905": 7285,
      "##tor": 7286,
      "home": 7287,
      "57": 7288,
      "Da": 7289,
      "1908": 7290,
      "##dae": 7291,
      "58": 7292,
      "##ius": 7293,
      "East": 7294,
      "Marie": 7295,
      "Star": 7296,
      "music": 7297,
      "post": 7298,
      "national": 7299,
      "high": 7300,
      "set": 7301,
      "Island": 7302,
      "##dor": 7303,
      "like": 7304,
      "1907": 7305,
      "##ux": 7306,
      "now": 7307,
      "ra": 7308,
      "##nda": 7309,
      "Karl": 7310,
      "##idae": 7311,
      "59": 7312,
      "Frank": 7313,
      "Antonio": 7314,
      "##ker": 7315,
      "Central": 7316,
      "ga": 7317,
      "##ang": 7318,
      "Japan": 7319,
      "French": 7320,
      "kg": 7321,
      "show": 7322,
      "off": 7323,
      "800": 7324,
      "##ua": 7325,
      "##chen": 7326,
      "##ico": 7327,
      "##ted": 7328,
      "European": 7329,
      "Bu": 7330,
      "##ice": 7331,
      "Open": 7332,
      "major": 7333,
      "##hi": 7334,
      "Band": 7335,
      "Journal": 7336,
      "1906": 7337,
      "Od": 7338,
      "art": 7339,
      "1904": 7340,
      "day": 7341,
      "##ive": 7342,
      "1909": 7343,
      "##ling": 7344,
      "##ity": 7345,
      "we": 7346,
      "##ata": 7347,
      "High": 7348,
      "District": 7349,
      "Street": 7350,
      "##gan": 7351,
      "##ven": 7352,
      "95": 7353,
      "Per": 7354,
      "Edward": 7355,
      "##zen": 7356,
      "Division": 7357,
      "net": 7358,
      "##ui": 7359,
      "Mark": 7360,
      "##ei": 7361,
      "Time": 7362,
      "Land": 7363,
      "Nord": 7364,
      "Lee": 7365,
      "##°": 7366,
      "##rio": 7367,
      "back": 7368,
      "##era": 7369,
      "85": 7370,
      "Times": 7371,
      "hans": 7372,
      "##U": 7373,
      "##rd": 7374,
      "German": 7375,
      "Institute": 7376,
      "Is": 7377,
      "##ville": 7378,
      "##sch": 7379,
      "120": 7380,
      "Carlos": 7381,
      "Group": 7382,
      "##lan": 7383,
      "##tan": 7384,
      "##ene": 7385,
      "Alexander": 7386,
      "Live": 7387,
      "62": 7388,
      "XX": 7389,
      "88": 7390,
      "Modern": 7391,
      "Radio": 7392,
      "Os": 7393,
      "##lor": 7394,
      "##zo": 7395,
      "##ure": 7396,
      "life": 7397,
      "##ley": 7398,
      "district": 7399,
      "Rio": 7400,
      "##ran": 7401,
      "line": 7402,
      "72": 7403,
      "##ris": 7404,
      "fr": 7405,
      "First": 7406,
      "##kin": 7407,
      "##tte": 7408,
      "mi": 7409,
      "Index": 7410,
      "White": 7411,
      "Team": 7412,
      "##ting": 7413,
      "Information": 7414,
      "##dan": 7415,
      "Science": 7416,
      "##nce": 7417,
      "left": 7418,
      "Rock": 7419,
      "Data": 7420,
      "Op": 7421,
      "1903": 7422,
      "Mary": 7423,
      "##bu": 7424,
      "82": 7425,
      "1000": 7426,
      "99": 7427,
      "form": 7428,
      "##tta": 7429,
      "Friedrich": 7430,
      "fa": 7431,
      "##ber": 7432,
      "250": 7433,
      "66": 7434,
      "News": 7435,
      "town": 7436,
      "From": 7437,
      "##ale": 7438,
      "86": 7439,
      "Carl": 7440,
      "pre": 7441,
      "##ス": 7442,
      "##val": 7443,
      "##で": 7444,
      "Simon": 7445,
      "When": 7446,
      "##ère": 7447,
      "##burg": 7448,
      "side": 7449,
      "1901": 7450,
      "63": 7451,
      "##ah": 7452,
      "sy": 7453,
      "VI": 7454,
      "Su": 7455,
      "Tom": 7456,
      "##age": 7457,
      "if": 7458,
      "##tus": 7459,
      "Hill": 7460,
      "Jones": 7461,
      "Anna": 7462,
      "##ano": 7463,
      "1902": 7464,
      "96": 7465,
      "1890": 7466,
      "61": 7467,
      "67": 7468,
      "Chicago": 7469,
      "81": 7470,
      "98": 7471,
      "97": 7472,
      "point": 7473,
      "##ros": 7474,
      "List": 7475,
      "Championship": 7476,
      "Jack": 7477,
      "Bureau": 7478,
      "##ino": 7479,
      "##mann": 7480,
      "##cu": 7481,
      "##dy": 7482,
      "Awards": 7483,
      "Roman": 7484,
      "Day": 7485,
      "mu": 7486,
      "top": 7487,
      "700": 7488,
      "##ü": 7489,
      "68": 7490,
      "##mer": 7491,
      "Real": 7492,
      "##ms": 7493,
      "##ito": 7494,
      "Son": 7495,
      "##H": 7496,
      "Por": 7497,
      "Sa": 7498,
      "83": 7499,
      "Internet": 7500,
      "Albert": 7501,
      "Culture": 7502,
      "Marine": 7503,
      "76": 7504,
      "##ル": 7505,
      "##ate": 7506,
      "##ima": 7507,
      "##ium": 7508,
      "##ens": 7509,
      "92": 7510,
      "PDF": 7511,
      "Texas": 7512,
      "Album": 7513,
      "##ari": 7514,
      "Young": 7515,
      "93": 7516,
      "Big": 7517,
      "What": 7518,
      "1898": 7519,
      "78": 7520,
      "Williams": 7521,
      "##kt": 7522,
      "Football": 7523,
      "Walter": 7524,
      "##ono": 7525,
      "71": 7526,
      "91": 7527,
      "77": 7528,
      "Party": 7529,
      "74": 7530,
      "##lis": 7531,
      "73": 7532,
      "Vol": 7533,
      "##zy": 7534,
      "1897": 7535,
      "1896": 7536,
      "##rat": 7537,
      "##ver": 7538,
      "DVD": 7539,
      "air": 7540,
      "1899": 7541,
      "69": 7542,
      "##we": 7543,
      "Academy": 7544,
      "87": 7545,
      "##gu": 7546,
      "Great": 7547,
      "Under": 7548,
      "##nis": 7549,
      "1895": 7550,
      "Lac": 7551,
      "id": 7552,
      "control": 7553,
      "Of": 7554,
      "With": 7555,
      "##ld": 7556,
      "Brown": 7557,
      "##let": 7558,
      "Johann": 7559,
      "89": 7560,
      "Nam": 7561,
      "Road": 7562,
      "##rum": 7563,
      "Wilhelm": 7564,
      "##X": 7565,
      "##pi": 7566,
      "##ara": 7567,
      "col": 7568,
      "##od": 7569,
      "##ys": 7570,
      "##tti": 7571,
      "Top": 7572,
      "And": 7573,
      "Church": 7574,
      "Mit": 7575,
      "Night": 7576,
      "##ite": 7577,
      "##pen": 7578,
      "##per": 7579,
      "vol": 7580,
      "##ez": 7581,
      "By": 7582,
      "##og": 7583,
      "##ato": 7584,
      "1889": 7585,
      "1880": 7586,
      "##use": 7587,
      "Version": 7588,
      "##ele": 7589,
      "Jacques": 7590,
      "book": 7591,
      "94": 7592,
      "##nti": 7593,
      "##ser": 7594,
      "Army": 7595,
      "##ster": 7596,
      "##ue": 7597,
      "##sia": 7598,
      "Asia": 7599,
      "##ras": 7600,
      "##ret": 7601,
      "Super": 7602,
      "79": 7603,
      "1870": 7604,
      "Grande": 7605,
      "##ova": 7606,
      "##chi": 7607,
      "type": 7608,
      "##ile": 7609,
      "President": 7610,
      "Scott": 7611,
      "Luis": 7612,
      "##sse": 7613,
      "##tar": 7614,
      "just": 7615,
      "Council": 7616,
      "##ane": 7617,
      "Social": 7618,
      "Australian": 7619,
      "Prix": 7620,
      "Centre": 7621,
      "Con": 7622,
      "Pedro": 7623,
      "Sir": 7624,
      "Max": 7625,
      "We": 7626,
      "##bar": 7627,
      "##ye": 7628,
      "So": 7629,
      "see": 7630,
      "##su": 7631,
      "1886": 7632,
      "##rie": 7633,
      "Windows": 7634,
      "1885": 7635,
      "##sel": 7636,
      "Harry": 7637,
      "Mr": 7638,
      "##ona": 7639,
      "##mas": 7640,
      "1894": 7641,
      "##one": 7642,
      "##ade": 7643,
      "Department": 7644,
      "down": 7645,
      "Little": 7646,
      "Arts": 7647,
      "Di": 7648,
      "Power": 7649,
      "##line": 7650,
      "##van": 7651,
      "Research": 7652,
      "1893": 7653,
      "##ft": 7654,
      "live": 7655,
      "##cha": 7656,
      "Jr": 7657,
      "1892": 7658,
      "##dd": 7659,
      "Blue": 7660,
      "what": 7661,
      "##net": 7662,
      "Sciences": 7663,
      "1891": 7664,
      "##eur": 7665,
      "VII": 7666,
      "order": 7667,
      "François": 7668,
      "web": 7669,
      "car": 7670,
      "##ey": 7671,
      "##ira": 7672,
      "##uk": 7673,
      "##lin": 7674,
      "##ore": 7675,
      "Men": 7676,
      "you": 7677,
      "##ena": 7678,
      "##W": 7679,
      "Global": 7680,
      "##ise": 7681,
      "##est": 7682,
      "1888": 7683,
      "tu": 7684,
      "110": 7685,
      "##rn": 7686,
      "Joe": 7687,
      "Green": 7688,
      "Lo": 7689,
      "Adam": 7690,
      "Good": 7691,
      "##zu": 7692,
      "Wilson": 7693,
      "make": 7694,
      "##uri": 7695,
      "##able": 7696,
      "Co": 7697,
      "Creek": 7698,
      "Manuel": 7699,
      "##sis": 7700,
      "Ed": 7701,
      "Nova": 7702,
      "IUCN": 7703,
      "##vel": 7704,
      "##ali": 7705,
      "Arthur": 7706,
      "##ring": 7707,
      "##ves": 7708,
      "##α": 7709,
      "Bay": 7710,
      "Chris": 7711,
      "##ges": 7712,
      "Bill": 7713,
      "Western": 7714,
      "##ard": 7715,
      "Jackson": 7716,
      "way": 7717,
      "ho": 7718,
      "Song": 7719,
      "power": 7720,
      "##ih": 7721,
      "model": 7722,
      "##ham": 7723,
      "##tra": 7724,
      "Au": 7725,
      "Two": 7726,
      "Law": 7727,
      "##lia": 7728,
      "##ps": 7729,
      "html": 7730,
      "##eri": 7731,
      "Her": 7732,
      "##ès": 7733,
      "1878": 7734,
      "##rea": 7735,
      "Series": 7736,
      "Mae": 7737,
      "Johnson": 7738,
      "1883": 7739,
      "law": 7740,
      "Li": 7741,
      "##ati": 7742,
      "##sh": 7743,
      "##ds": 7744,
      "Mike": 7745,
      "Gran": 7746,
      "Michel": 7747,
      "##ix": 7748,
      "##tic": 7749,
      "level": 7750,
      "1887": 7751,
      "Thompson": 7752,
      "##も": 7753,
      "face": 7754,
      "Giovanni": 7755,
      "Chinese": 7756,
      "Ben": 7757,
      "Long": 7758,
      "Steve": 7759,
      "##ami": 7760,
      "##ula": 7761,
      "##ide": 7762,
      "##tos": 7763,
      "##ee": 7764,
      "##ala": 7765,
      "Philip": 7766,
      "##ons": 7767,
      "##cs": 7768,
      "1860": 7769,
      "Ce": 7770,
      "Media": 7771,
      "Office": 7772,
      "##met": 7773,
      "style": 7774,
      "Sud": 7775,
      "##het": 7776,
      "##op": 7777,
      "1884": 7778,
      "##fa": 7779,
      "Heinrich": 7780,
      "##yn": 7781,
      "Force": 7782,
      "##mos": 7783,
      "##ford": 7784,
      "130": 7785,
      "##cher": 7786,
      "##ism": 7787,
      "Taylor": 7788,
      "##field": 7789,
      "php": 7790,
      "##ss": 7791,
      "1848": 7792,
      "1882": 7793,
      "1881": 7794,
      "##tis": 7795,
      "##ici": 7796,
      "Lord": 7797,
      "right": 7798,
      "Show": 7799,
      "Columbia": 7800,
      "##nan": 7801,
      "##rna": 7802,
      "##eg": 7803,
      "##urs": 7804,
      "Russell": 7805,
      "ru": 7806,
      "real": 7807,
      "Service": 7808,
      "Anne": 7809,
      "Are": 7810,
      "Para": 7811,
      "##ous": 7812,
      "##ell": 7813,
      "1st": 7814,
      "1871": 7815,
      "Roger": 7816,
      "Ali": 7817,
      "##po": 7818,
      "Billboard": 7819,
      "##mus": 7820,
      "Bank": 7821,
      "Women": 7822,
      "Kim": 7823,
      "900": 7824,
      "##mes": 7825,
      "Your": 7826,
      "##ese": 7827,
      "Year": 7828,
      "Otto": 7829,
      "##bra": 7830,
      "Bob": 7831,
      "class": 7832,
      "##ht": 7833,
      "##ral": 7834,
      "Inc": 7835,
      "1861": 7836,
      "Henri": 7837,
      "ac": 7838,
      "1864": 7839,
      "1857": 7840,
      "1879": 7841,
      "##én": 7842,
      "Virginia": 7843,
      "##tica": 7844,
      "##yi": 7845,
      "Empire": 7846,
      "That": 7847,
      "1800": 7848,
      "##ket": 7849,
      "1876": 7850,
      "Up": 7851,
      "##llo": 7852,
      "Victoria": 7853,
      "Republic": 7854,
      "Special": 7855,
      "##tz": 7856,
      "language": 7857,
      "Queen": 7858,
      "FIFA": 7859,
      "VIII": 7860,
      "Program": 7861,
      "pop": 7862,
      "##hu": 7863,
      "##bre": 7864,
      "Alfred": 7865,
      "Francis": 7866,
      "##ero": 7867,
      "Ha": 7868,
      "Ma": 7869,
      "Francesco": 7870,
      "Tony": 7871,
      "Franz": 7872,
      "Lewis": 7873,
      "##bus": 7874,
      "##bel": 7875,
      "Old": 7876,
      "cc": 7877,
      "1877": 7878,
      "##rin": 7879,
      "##ili": 7880,
      "ara": 7881,
      "##los": 7882,
      "1873": 7883,
      "1863": 7884,
      "1810": 7885,
      "Je": 7886,
      "1875": 7887,
      "##ila": 7888,
      "Book": 7889,
      "1633": 7890,
      "##ging": 7891,
      "Des": 7892,
      "1865": 7893,
      "Natural": 7894,
      "##ff": 7895,
      "1867": 7896,
      "Digital": 7897,
      "André": 7898,
      "Sky": 7899,
      "##vis": 7900,
      "##ram": 7901,
      "160": 7902,
      "##dia": 7903,
      "1868": 7904,
      "Stephen": 7905,
      "Patrick": 7906,
      "Ray": 7907,
      "Villa": 7908,
      "1850": 7909,
      "##iv": 7910,
      "Some": 7911,
      "Google": 7912,
      "##ong": 7913,
      "XIII": 7914,
      "##ー": 7915,
      "Robinson": 7916,
      "Home": 7917,
      "##iti": 7918,
      "Miguel": 7919,
      "Johannes": 7920,
      "180": 7921,
      "##ト": 7922,
      "##if": 7923,
      "1500": 7924,
      "##rus": 7925,
      "See": 7926,
      "Nature": 7927,
      "1866": 7928,
      "1872": 7929,
      "SS": 7930,
      "1859": 7931,
      "vi": 7932,
      "140": 7933,
      "Ia": 7934,
      "free": 7935,
      "Airport": 7936,
      "##Z": 7937,
      "Sun": 7938,
      "Act": 7939,
      "##ding": 7940,
      "Brian": 7941,
      "1869": 7942,
      "##heim": 7943,
      "##las": 7944,
      "##ett": 7945,
      "sub": 7946,
      "1862": 7947,
      "Georg": 7948,
      "##nas": 7949,
      "##ay": 7950,
      "Andrew": 7951,
      "Books": 7952,
      "Lady": 7953,
      "##ness": 7954,
      "Mario": 7955,
      "##ani": 7956,
      "God": 7957,
      "Pro": 7958,
      "Fernando": 7959,
      "Studies": 7960,
      "Bad": 7961,
      "1874": 7962,
      "Oscar": 7963,
      "fi": 7964,
      "125": 7965,
      "Online": 7966,
      "Eric": 7967,
      "##ella": 7968,
      "Game": 7969,
      "Za": 7970,
      "##lus": 7971,
      "##tive": 7972,
      "Guide": 7973,
      "open": 7974,
      "##lli": 7975,
      "Hot": 7976,
      "Korea": 7977,
      "Court": 7978,
      "##nus": 7979,
      "2nd": 7980,
      "EP": 7981,
      "Ludwig": 7982,
      "https": 7983,
      "101": 7984,
      "##way": 7985,
      "##bach": 7986,
      "color": 7987,
      "##vas": 7988,
      "Point": 7989,
      "Library": 7990,
      "Mission": 7991,
      "Elizabeth": 7992,
      "Victor": 7993,
      "Jim": 7994,
      "human": 7995,
      "Second": 7996,
      "Prince": 7997,
      "Entertainment": 7998,
      "##tal": 7999,
      "##ae": 8000,
      "##her": 8001,
      "##zer": 8002,
      "##una": 8003,
      "##iro": 8004,
      "##xa": 8005,
      "People": 8006,
      "##tro": 8007,
      "##り": 8008,
      "Set": 8009,
      "Miss": 8010,
      "Ta": 8011,
      "anti": 8012,
      "##illa": 8013,
      "Ford": 8014,
      "Dan": 8015,
      "Century": 8016,
      "Sam": 8017,
      "##osa": 8018,
      "Davis": 8019,
      "Mount": 8020,
      "Station": 8021,
      "Project": 8022,
      "Alan": 8023,
      "Claude": 8024,
      "##cus": 8025,
      "Be": 8026,
      "chi": 8027,
      "Fort": 8028,
      "##ori": 8029,
      "IX": 8030,
      "##bia": 8031,
      "example": 8032,
      "Line": 8033,
      "Most": 8034,
      "Gold": 8035,
      "##rne": 8036,
      "##jan": 8037,
      "syn": 8038,
      "Town": 8039,
      "ti": 8040,
      "##hin": 8041,
      "##nos": 8042,
      "Professor": 8043,
      "Valley": 8044,
      "##wan": 8045,
      "Model": 8046,
      "##ich": 8047,
      "##fi": 8048,
      "##ins": 8049,
      "##ré": 8050,
      "##gar": 8051,
      "##ille": 8052,
      "news": 8053,
      "Golden": 8054,
      "##san": 8055,
      "Carlo": 8056,
      "Go": 8057,
      "##ful": 8058,
      "DC": 8059,
      "Bernard": 8060,
      "Sur": 8061,
      "Corporation": 8062,
      "##feld": 8063,
      "##haus": 8064,
      "Stone": 8065,
      "Susan": 8066,
      "Committee": 8067,
      "Federal": 8068,
      "##del": 8069,
      "##bb": 8070,
      "##lio": 8071,
      "Games": 8072,
      "Development": 8073,
      "Out": 8074,
      "##kel": 8075,
      "Who": 8076,
      "Um": 8077,
      "105": 8078,
      "##ag": 8079,
      "Roy": 8080,
      "Girl": 8081,
      "##ct": 8082,
      "1830": 8083,
      "If": 8084,
      "Post": 8085,
      "##dal": 8086,
      "Foundation": 8087,
      "Ernst": 8088,
      "Sin": 8089,
      "Space": 8090,
      "##ose": 8091,
      "Kong": 8092,
      "Government": 8093,
      "##ces": 8094,
      "##up": 8095,
      "Pacific": 8096,
      "##fe": 8097,
      "Master": 8098,
      "Miller": 8099,
      "XI": 8100,
      "Web": 8101,
      "##oi": 8102,
      "##oni": 8103,
      "##gas": 8104,
      "Public": 8105,
      "Kingdom": 8106,
      "##sson": 8107,
      "##ean": 8108,
      "Story": 8109,
      "lu": 8110,
      "##υ": 8111,
      "##mar": 8112,
      "##ズ": 8113,
      "Bruce": 8114,
      "Review": 8115,
      "1840": 8116,
      "##Y": 8117,
      "##pus": 8118,
      "Order": 8119,
      "Premier": 8120,
      "Va": 8121,
      "##eta": 8122,
      "##る": 8123,
      "Alex": 8124,
      "##nta": 8125,
      "Port": 8126,
      "Sea": 8127,
      "Board": 8128,
      "##ム": 8129,
      "Anthony": 8130,
      "##and": 8131,
      "##wood": 8132,
      "Part": 8133,
      "##oa": 8134,
      "Network": 8135,
      "Movie": 8136,
      "##hen": 8137,
      "##し": 8138,
      "Battle": 8139,
      "Last": 8140,
      "102": 8141,
      "Can": 8142,
      "Samuel": 8143,
      "Family": 8144,
      "##ette": 8145,
      "##fer": 8146,
      "NBA": 8147,
      "Douglas": 8148,
      "Rose": 8149,
      "##ao": 8150,
      "1858": 8151,
      "Fox": 8152,
      "Main": 8153,
      "Non": 8154,
      "Gordon": 8155,
      "##ö": 8156,
      "Civil": 8157,
      "##get": 8158,
      "Monte": 8159,
      "Final": 8160,
      "Du": 8161,
      "##ary": 8162,
      "Commission": 8163,
      "##ora": 8164,
      "##ych": 8165,
      "##dra": 8166,
      "Georges": 8167,
      "##min": 8168,
      "Summer": 8169,
      "How": 8170,
      "Country": 8171,
      "##pt": 8172,
      "##less": 8173,
      "vs": 8174,
      "Major": 8175,
      "##iya": 8176,
      "350": 8177,
      "Video": 8178,
      "##my": 8179,
      "Trade": 8180,
      "Anderson": 8181,
      "##ans": 8182,
      "Microsoft": 8183,
      "##cos": 8184,
      "##tions": 8185,
      "1856": 8186,
      "Sport": 8187,
      "Education": 8188,
      "1854": 8189,
      "Report": 8190,
      "Hong": 8191,
      "##don": 8192,
      "Howard": 8193,
      "##ē": 8194,
      "Heart": 8195,
      "File": 8196,
      "Allen": 8197,
      "##リー": 8198,
      "##zh": 8199,
      "Like": 8200,
      "##ela": 8201,
      "104": 8202,
      "##pan": 8203,
      "Southern": 8204,
      "my": 8205,
      "Ltd": 8206,
      "Mountain": 8207,
      "process": 8208,
      "Three": 8209,
      "##tto": 8210,
      "##ama": 8211,
      "1849": 8212,
      "##ola": 8213,
      "Theatre": 8214,
      "hy": 8215,
      "##ast": 8216,
      "tan": 8217,
      "##kar": 8218,
      "good": 8219,
      "Planet": 8220,
      "Village": 8221,
      "##い": 8222,
      "1855": 8223,
      "Georgia": 8224,
      "##mis": 8225,
      "Christopher": 8226,
      "zone": 8227,
      "Marc": 8228,
      "Catherine": 8229,
      "Business": 8230,
      "##ī": 8231,
      "1852": 8232,
      "Tokyo": 8233,
      "Tim": 8234,
      "Norman": 8235,
      "3000": 8236,
      "##sto": 8237,
      "##iga": 8238,
      "##vy": 8239,
      "Northern": 8240,
      "415": 8241,
      "##tin": 8242,
      "##sin": 8243,
      "Magazine": 8244,
      "Moore": 8245,
      "Kevin": 8246,
      "Will": 8247,
      "##ō": 8248,
      "Boy": 8249,
      "##art": 8250,
      "##ール": 8251,
      "##ping": 8252,
      "Stanley": 8253,
      "Philippe": 8254,
      "170": 8255,
      "Hotel": 8256,
      "##J": 8257,
      "Human": 8258,
      "Walker": 8259,
      "Middle": 8260,
      "Gabriel": 8261,
      "FM": 8262,
      "##dar": 8263,
      "##ラ": 8264,
      "Death": 8265,
      "##hus": 8266,
      "Catholic": 8267,
      "##vin": 8268,
      "Universal": 8269,
      "##nne": 8270,
      "ins": 8271,
      "Sports": 8272,
      "Gary": 8273,
      "DNA": 8274,
      "##port": 8275,
      "Bell": 8276,
      "##ish": 8277,
      "Ze": 8278,
      "Small": 8279,
      "1851": 8280,
      "text": 8281,
      "Jane": 8282,
      "Johnny": 8283,
      "103": 8284,
      "##dom": 8285,
      "##house": 8286,
      "1853": 8287,
      "##ios": 8288,
      "##yo": 8289,
      "Ab": 8290,
      "Est": 8291,
      "Beach": 8292,
      "##din": 8293,
      "##ial": 8294,
      "##king": 8295,
      "center": 8296,
      "Ivan": 8297,
      "tri": 8298,
      "##tel": 8299,
      "1846": 8300,
      "Way": 8301,
      "Cross": 8302,
      "115": 8303,
      "Light": 8304,
      "##mia": 8305,
      "ba": 8306,
      "ku": 8307,
      "##tur": 8308,
      "##lé": 8309,
      "Centro": 8310,
      "##gs": 8311,
      "Over": 8312,
      "##ev": 8313,
      "##lon": 8314,
      "##red": 8315,
      "##ド": 8316,
      "Name": 8317,
      "Mar": 8318,
      "Clark": 8319,
      "Fall": 8320,
      "##か": 8321,
      "1847": 8322,
      "light": 8323,
      "##mit": 8324,
      "##gh": 8325,
      "1815": 8326,
      "##usi": 8327,
      "Kelly": 8328,
      "##rak": 8329,
      "##cal": 8330,
      "##hn": 8331,
      "##て": 8332,
      "##zar": 8333,
      "220": 8334,
      "Marcus": 8335,
      "##yon": 8336,
      "111": 8337,
      "Hermann": 8338,
      "##iz": 8339,
      "Dance": 8340,
      "107": 8341,
      "108": 8342,
      "Hamilton": 8343,
      "##oli": 8344,
      "ISO": 8345,
      "##well": 8346,
      "Ann": 8347,
      "Stand": 8348,
      "Billy": 8349,
      "Mann": 8350,
      "Wild": 8351,
      "##smo": 8352,
      "1845": 8353,
      "Back": 8354,
      "##wi": 8355,
      "Health": 8356,
      "360": 8357,
      "##oon": 8358,
      "More": 8359,
      "1842": 8360,
      "##ec": 8361,
      "Nelson": 8362,
      "Technology": 8363,
      "##イ": 8364,
      "Del": 8365,
      "##yan": 8366,
      "##car": 8367,
      "Edition": 8368,
      "##eo": 8369,
      "Field": 8370,
      "Down": 8371,
      "Barbara": 8372,
      "Fire": 8373,
      "240": 8374,
      "##ture": 8375,
      "Hospital": 8376,
      "##gel": 8377,
      "Not": 8378,
      "Studio": 8379,
      "1844": 8380,
      "Sul": 8381,
      "ABC": 8382,
      "DJ": 8383,
      "Alice": 8384,
      "##ap": 8385,
      "Dave": 8386,
      "##hed": 8387,
      "106": 8388,
      "Moon": 8389,
      "Sri": 8390,
      "##sy": 8391,
      "##ule": 8392,
      "##sky": 8393,
      "##shi": 8394,
      "##mal": 8395,
      "Free": 8396,
      "Nick": 8397,
      "112": 8398,
      "love": 8399,
      "##ρ": 8400,
      "Jazz": 8401,
      "1814": 8402,
      "1837": 8403,
      "Vincent": 8404,
      "##tia": 8405,
      "Val": 8406,
      "Dark": 8407,
      "128": 8408,
      "Lawrence": 8409,
      "space": 8410,
      "##ech": 8411,
      "##ult": 8412,
      "##stein": 8413,
      "##bes": 8414,
      "##ô": 8415,
      "1839": 8416,
      "Jimmy": 8417,
      "Zu": 8418,
      "Et": 8419,
      "Med": 8420,
      "1834": 8421,
      "About": 8422,
      "##int": 8423,
      "Single": 8424,
      "1835": 8425,
      "##ches": 8426,
      "Code": 8427,
      "##mon": 8428,
      "bin": 8429,
      "109": 8430,
      "##ving": 8431,
      "##rk": 8432,
      "Charlie": 8433,
      "pol": 8434,
      "Eastern": 8435,
      "##ort": 8436,
      "Khan": 8437,
      "Come": 8438,
      "1838": 8439,
      "Dead": 8440,
      "##pes": 8441,
      "PC": 8442,
      "##sing": 8443,
      "Guy": 8444,
      "135": 8445,
      "Jordan": 8446,
      "##led": 8447,
      "Ana": 8448,
      "##ors": 8449,
      "##gue": 8450,
      "Jonathan": 8451,
      "##ères": 8452,
      "##ming": 8453,
      "##tle": 8454,
      "Ten": 8455,
      "Junior": 8456,
      "##dre": 8457,
      "##ab": 8458,
      "Mas": 8459,
      "Conference": 8460,
      "Boys": 8461,
      "##kov": 8462,
      "1843": 8463,
      "Donald": 8464,
      "##nna": 8465,
      "##ット": 8466,
      "##ance": 8467,
      "##ク": 8468,
      "Ryan": 8469,
      "##bin": 8470,
      "Management": 8471,
      "##eti": 8472,
      "Jacob": 8473,
      "##nder": 8474,
      "1831": 8475,
      "Río": 8476,
      "Duke": 8477,
      "Sarah": 8478,
      "Channel": 8479,
      "Ele": 8480,
      "Terra": 8481,
      "##cho": 8482,
      "Ian": 8483,
      "##pp": 8484,
      "##ized": 8485,
      "1812": 8486,
      "1836": 8487,
      "##ow": 8488,
      "1644": 8489,
      "1841": 8490,
      "117": 8491,
      "Stadium": 8492,
      "Winter": 8493,
      "##var": 8494,
      "##ovi": 8495,
      "190": 8496,
      "##over": 8497,
      "Harris": 8498,
      "Rosa": 8499,
      "Com": 8500,
      "Keith": 8501,
      "Ross": 8502,
      "##lat": 8503,
      "1600": 8504,
      "450": 8505,
      "ver": 8506,
      "Chief": 8507,
      "##py": 8508,
      "##uma": 8509,
      "Railway": 8510,
      "1832": 8511,
      "Girls": 8512,
      "##hr": 8513,
      "1833": 8514,
      "Four": 8515,
      "Landkreis": 8516,
      "1820": 8517,
      "End": 8518,
      "MTV": 8519,
      "Jason": 8520,
      "3rd": 8521,
      "Andy": 8522,
      "##ute": 8523,
      "Benjamin": 8524,
      "##eno": 8525,
      "##ef": 8526,
      "##wo": 8527,
      "Head": 8528,
      "##eu": 8529,
      "Opera": 8530,
      "##き": 8531,
      "Machine": 8532,
      "Herbert": 8533,
      "Baker": 8534,
      "Islands": 8535,
      "Oliver": 8536,
      "Leo": 8537,
      "Fred": 8538,
      "230": 8539,
      "##ym": 8540,
      "1793": 8541,
      "##ase": 8542,
      "##ped": 8543,
      "Asian": 8544,
      "night": 8545,
      "##och": 8546,
      "Mac": 8547,
      "Form": 8548,
      "Graham": 8549,
      "Collins": 8550,
      "Adams": 8551,
      "code": 8552,
      "123": 8553,
      "Matt": 8554,
      "But": 8555,
      "114": 8556,
      "Wright": 8557,
      "##ics": 8558,
      "Songs": 8559,
      "Hy": 8560,
      "##ward": 8561,
      "113": 8562,
      "Body": 8563,
      "Prize": 8564,
      "##umi": 8565,
      "##xo": 8566,
      "##gal": 8567,
      "HMS": 8568,
      "Tag": 8569,
      "##oma": 8570,
      "1821": 8571,
      "##wer": 8572,
      "750": 8573,
      "##hl": 8574,
      "Fu": 8575,
      "Castle": 8576,
      "Baby": 8577,
      "Champion": 8578,
      "Justice": 8579,
      "##ides": 8580,
      "116": 8581,
      "##gy": 8582,
      "Just": 8583,
      "Now": 8584,
      "210": 8585,
      "Frederick": 8586,
      "Morgan": 8587,
      "##bal": 8588,
      "Let": 8589,
      "Sainte": 8590,
      "Today": 8591,
      "Morris": 8592,
      "Revolution": 8593,
      "Robin": 8594,
      "Charlotte": 8595,
      "Studios": 8596,
      "##dig": 8597,
      "Object": 8598,
      "Apple": 8599,
      "Jeff": 8600,
      "Gallery": 8601,
      "1200": 8602,
      "Express": 8603,
      "Wang": 8604,
      "Daily": 8605,
      "CIA": 8606,
      "Christmas": 8607,
      "3D": 8608,
      "1825": 8609,
      "Mars": 8610,
      "##pin": 8611,
      "Dream": 8612,
      "1700": 8613,
      "Raymond": 8614,
      "ob": 8615,
      "##sar": 8616,
      "Doctor": 8617,
      "Age": 8618,
      "##ord": 8619,
      "1829": 8620,
      "Stefan": 8621,
      "##sie": 8622,
      "kW": 8623,
      "121": 8624,
      "AS": 8625,
      "Bridge": 8626,
      "##gne": 8627,
      "Sound": 8628,
      "Par": 8629,
      "5000": 8630,
      "##ip": 8631,
      "##dis": 8632,
      "THE": 8633,
      "1828": 8634,
      "our": 8635,
      "Captain": 8636,
      "001": 8637,
      "Place": 8638,
      "1806": 8639,
      "##sion": 8640,
      "Orchestra": 8641,
      "Memorial": 8642,
      "##mat": 8643,
      "122": 8644,
      "##pu": 8645,
      "Stewart": 8646,
      "Coast": 8647,
      "##jar": 8648,
      "##cer": 8649,
      "Laura": 8650,
      "##out": 8651,
      "118": 8652,
      "##non": 8653,
      "LP": 8654,
      "##mm": 8655,
      "Euro": 8656,
      "Sultan": 8657,
      "##ction": 8658,
      "Gray": 8659,
      "feat": 8660,
      "Get": 8661,
      "Pop": 8662,
      "Angel": 8663,
      "Steven": 8664,
      "##み": 8665,
      "Bishop": 8666,
      "##esi": 8667,
      "Garden": 8668,
      "127": 8669,
      "Grant": 8670,
      "##nel": 8671,
      "##ib": 8672,
      "##ical": 8673,
      "Woman": 8674,
      "Kr": 8675,
      "Bull": 8676,
      "##nal": 8677,
      "YouTube": 8678,
      "Forest": 8679,
      "Berg": 8680,
      "Route": 8681,
      "bit": 8682,
      "Jerry": 8683,
      "Dom": 8684,
      "Water": 8685,
      "Marshall": 8686,
      "Play": 8687,
      "SM": 8688,
      "##mba": 8689,
      "Collection": 8690,
      "Silva": 8691,
      "Design": 8692,
      "Arnold": 8693,
      "Jon": 8694,
      "##yer": 8695,
      "EU": 8696,
      "##nk": 8697,
      "Mix": 8698,
      "Airlines": 8699,
      "Pas": 8700,
      "Gli": 8701,
      "str": 8702,
      "1802": 8703,
      "Dame": 8704,
      "126": 8705,
      "Area": 8706,
      "theory": 8707,
      "1824": 8708,
      "280": 8709,
      "Standard": 8710,
      "145": 8711,
      "Chart": 8712,
      "Avenue": 8713,
      "##hip": 8714,
      "1789": 8715,
      "##ein": 8716,
      "1813": 8717,
      "Stars": 8718,
      "##lly": 8719,
      "##ual": 8720,
      "1826": 8721,
      "##town": 8722,
      "Murray": 8723,
      "##gon": 8724,
      "##worth": 8725,
      "1818": 8726,
      "AG": 8727,
      "##ndi": 8728,
      "Lucas": 8729,
      "124": 8730,
      "260": 8731,
      "Arena": 8732,
      "119": 8733,
      "##our": 8734,
      "Wolf": 8735,
      "Lost": 8736,
      "##log": 8737,
      "##rato": 8738,
      "Margaret": 8739,
      "Born": 8740,
      "155": 8741,
      "Carter": 8742,
      "Police": 8743,
      "Sony": 8744,
      "##ック": 8745,
      "##ular": 8746,
      "Municipal": 8747,
      "##bert": 8748,
      "##ain": 8749,
      "Mal": 8750,
      "WWE": 8751,
      "Sen": 8752,
      "##time": 8753,
      "Mei": 8754,
      "##ema": 8755,
      "##ology": 8756,
      "175": 8757,
      "##side": 8758,
      "##pat": 8759,
      "Barry": 8760,
      "bar": 8761,
      "1016": 8762,
      "AC": 8763,
      "1790": 8764,
      "SC": 8765,
      "Phil": 8766,
      "NHL": 8767,
      "##nga": 8768,
      "Matthew": 8769,
      "Campbell": 8770,
      "##nge": 8771,
      "Kurt": 8772,
      "USS": 8773,
      "Dal": 8774,
      "##cat": 8775,
      "##ア": 8776,
      "##bat": 8777,
      "##eth": 8778,
      "##ost": 8779,
      "Warren": 8780,
      "Here": 8781,
      "Page": 8782,
      "Children": 8783,
      "Brothers": 8784,
      "1801": 8785,
      "270": 8786,
      "##ac": 8787,
      "Wood": 8788,
      "ATP": 8789,
      "1816": 8790,
      "Abu": 8791,
      "1822": 8792,
      "129": 8793,
      "PlayStation": 8794,
      "##els": 8795,
      "Turner": 8796,
      "Medical": 8797,
      "##yle": 8798,
      "131": 8799,
      "132": 8800,
      "##har": 8801,
      "144": 8802,
      "##cas": 8803,
      "OS": 8804,
      "Metal": 8805,
      "Evans": 8806,
      "##tter": 8807,
      "mode": 8808,
      "Plan": 8809,
      "key": 8810,
      "1819": 8811,
      "##hal": 8812,
      "##ué": 8813,
      "Our": 8814,
      "1827": 8815,
      "Ar": 8816,
      "##ence": 8817,
      "Java": 8818,
      "effect": 8819,
      "##tina": 8820,
      "Bis": 8821,
      "##nier": 8822,
      "Pictures": 8823,
      "Television": 8824,
      "JR": 8825,
      "134": 8826,
      "Dia": 8827,
      "Community": 8828,
      "Jay": 8829,
      "1758": 8830,
      "##ric": 8831,
      "##mp": 8832,
      "##vio": 8833,
      "##logy": 8834,
      "152": 8835,
      "##uh": 8836,
      "1792": 8837,
      "Gilbert": 8838,
      "VM": 8839,
      "##ん": 8840,
      "Fra": 8841,
      "Cape": 8842,
      "ch": 8843,
      "Dean": 8844,
      "Pan": 8845,
      "133": 8846,
      "##back": 8847,
      "##cks": 8848,
      "##TV": 8849,
      "##eni": 8850,
      "1817": 8851,
      "Spring": 8852,
      "Stuart": 8853,
      "Bau": 8854,
      "Only": 8855,
      "Eva": 8856,
      "##ら": 8857,
      "Parker": 8858,
      "Chr": 8859,
      "##ings": 8860,
      "Temple": 8861,
      "Record": 8862,
      "136": 8863,
      "##gin": 8864,
      "##く": 8865,
      "1808": 8866,
      "Yang": 8867,
      "1809": 8868,
      "Austin": 8869,
      "##itz": 8870,
      "Blood": 8871,
      "Om": 8872,
      "##ロ": 8873,
      "CBS": 8874,
      "Earl": 8875,
      "Hills": 8876,
      "Cooper": 8877,
      "Deep": 8878,
      "Alto": 8879,
      "320": 8880,
      "137": 8881,
      "Engineering": 8882,
      "Systems": 8883,
      "1795": 8884,
      "##ator": 8885,
      "##ame": 8886,
      "##adi": 8887,
      "Federation": 8888,
      "Zone": 8889,
      "HD": 8890,
      "1803": 8891,
      "Bot": 8892,
      "##vre": 8893,
      "##all": 8894,
      "##ont": 8895,
      "htm": 8896,
      "Silver": 8897,
      "##ney": 8898,
      "153": 8899,
      "##uer": 8900,
      "##eus": 8901,
      "##ター": 8902,
      "##uti": 8903,
      "Christ": 8904,
      "Ernest": 8905,
      "Sau": 8906,
      "Economic": 8907,
      "##IS": 8908,
      "##pet": 8909,
      "985": 8910,
      "1823": 8911,
      "##olo": 8912,
      "##eria": 8913,
      "##ime": 8914,
      "##cker": 8915,
      "Days": 8916,
      "##hat": 8917,
      "##dit": 8918,
      "192": 8919,
      "##bury": 8920,
      "Class": 8921,
      "DDR": 8922,
      "Nintendo": 8923,
      "165": 8924,
      "##oto": 8925,
      "Front": 8926,
      "##rre": 8927,
      "Iron": 8928,
      "Plus": 8929,
      "##ust": 8930,
      "Five": 8931,
      "##hy": 8932,
      "##Q": 8933,
      "Nicholas": 8934,
      "Linux": 8935,
      "1811": 8936,
      "Bir": 8937,
      "##iri": 8938,
      "##rm": 8939,
      "Lloyd": 8940,
      "Ken": 8941,
      "##aga": 8942,
      "Ari": 8943,
      "function": 8944,
      "Bobby": 8945,
      "Or": 8946,
      "BC": 8947,
      "Yu": 8948,
      "##mel": 8949,
      "Kent": 8950,
      "Reich": 8951,
      "##af": 8952,
      "Leon": 8953,
      "Ne": 8954,
      "##iel": 8955,
      "Hon": 8956,
      "Singapore": 8957,
      "149": 8958,
      "Motor": 8959,
      "Taiwan": 8960,
      "Raja": 8961,
      "138": 8962,
      "Square": 8963,
      "Mont": 8964,
      "##cle": 8965,
      "Ball": 8966,
      "Language": 8967,
      "2019": 8968,
      "Secret": 8969,
      "##ill": 8970,
      "148": 8971,
      "1804": 8972,
      "143": 8973,
      "Wall": 8974,
      "##bs": 8975,
      "##sm": 8976,
      "Dragon": 8977,
      "Ve": 8978,
      "##コ": 8979,
      "141": 8980,
      "##wen": 8981,
      "Lisa": 8982,
      "Discovery": 8983,
      "##more": 8984,
      "GmbH": 8985,
      "1807": 8986,
      "139": 8987,
      "us": 8988,
      "Larry": 8989,
      "##ois": 8990,
      "Parti": 8991,
      "Sol": 8992,
      "1805": 8993,
      "Lan": 8994,
      "Ai": 8995,
      "Harold": 8996,
      "146": 8997,
      "Neil": 8998,
      "1794": 8999,
      "##for": 9000,
      "##lation": 9001,
      "Soul": 9002,
      "Met": 9003,
      "Sunday": 9004,
      "##form": 9005,
      "Box": 9006,
      "Original": 9007,
      "##ナ": 9008,
      "Magic": 9009,
      "tv": 9010,
      "OL": 9011,
      "Urban": 9012,
      "index": 9013,
      "##hon": 9014,
      "Bird": 9015,
      "Mi": 9016,
      "##ball": 9017,
      "NHK": 9018,
      "147": 9019,
      "Knight": 9020,
      "185": 9021,
      "Dennis": 9022,
      "Ralph": 9023,
      "142": 9024,
      "Terry": 9025,
      "##hes": 9026,
      "##fied": 9027,
      "Unit": 9028,
      "Prime": 9029,
      "##ace": 9030,
      "Base": 9031,
      "##ug": 9032,
      "##gn": 9033,
      "##ず": 9034,
      "##stra": 9035,
      "##ization": 9036,
      "##ep": 9037,
      "Dick": 9038,
      "##die": 9039,
      "Camp": 9040,
      "Din": 9041,
      "##air": 9042,
      "Hunter": 9043,
      "##cca": 9044,
      "##た": 9045,
      "Hi": 9046,
      "Nancy": 9047,
      "Control": 9048,
      "##oe": 9049,
      "Rick": 9050,
      "1798": 9051,
      "Tu": 9052,
      "##tone": 9053,
      "##bet": 9054,
      "##oz": 9055,
      "Tommy": 9056,
      "UA": 9057,
      "NFL": 9058,
      "Fe": 9059,
      "Perry": 9060,
      "##dh": 9061,
      "##rou": 9062,
      "Ho": 9063,
      "Services": 9064,
      "Note": 9065,
      "203": 9066,
      "##yt": 9067,
      "##tein": 9068,
      "##rg": 9069,
      "##lot": 9070,
      "##iers": 9071,
      "1799": 9072,
      "Re": 9073,
      "##10": 9074,
      "Leonard": 9075,
      "##of": 9076,
      "##ole": 9077,
      "151": 9078,
      "Danny": 9079,
      "1791": 9080,
      "Ron": 9081,
      "Rob": 9082,
      "##head": 9083,
      "##wn": 9084,
      "159": 9085,
      "156": 9086,
      "##pur": 9087,
      "Dei": 9088,
      "1400": 9089,
      "168": 9090,
      "your": 9091,
      "Baron": 9092,
      "Comics": 9093,
      "Never": 9094,
      "Limited": 9095,
      "154": 9096,
      "1797": 9097,
      "##cco": 9098,
      "##uz": 9099,
      "Ocean": 9100,
      "Classic": 9101,
      "Orange": 9102,
      "330": 9103,
      "Ye": 9104,
      "EM": 9105,
      "##lum": 9106,
      "##xi": 9107,
      "##has": 9108,
      "##off": 9109,
      "##uch": 9110,
      "Six": 9111,
      "Metro": 9112,
      "pl": 9113,
      "##ub": 9114,
      "550": 9115,
      "MBC": 9116,
      "Computer": 9117,
      "##ght": 9118,
      "Bar": 9119,
      "##スト": 9120,
      "Peace": 9121,
      "##wel": 9122,
      "##oy": 9123,
      "201": 9124,
      "##yr": 9125,
      "cell": 9126,
      "Hand": 9127,
      "Side": 9128,
      "##fu": 9129,
      "##rian": 9130,
      "##bit": 9131,
      "Production": 9132,
      "##band": 9133,
      "FA": 9134,
      "##ann": 9135,
      "1796": 9136,
      "##bility": 9137,
      "225": 9138,
      "Lane": 9139,
      "1775": 9140,
      "Hugh": 9141,
      "Theo": 9142,
      "205": 9143,
      "Primary": 9144,
      "##iki": 9145,
      "##ick": 9146,
      "167": 9147,
      "##nat": 9148,
      "##bro": 9149,
      "Security": 9150,
      "Hudson": 9151,
      "1300": 9152,
      "Jo": 9153,
      "Dam": 9154,
      "MS": 9155,
      "521": 9156,
      "157": 9157,
      "##dent": 9158,
      "##ctor": 9159,
      "##eb": 9160,
      "Energy": 9161,
      "##00": 9162,
      "Seven": 9163,
      "##rra": 9164,
      "##ars": 9165,
      "##water": 9166,
      "##lam": 9167,
      "Cook": 9168,
      "##gg": 9169,
      "650": 9170,
      "290": 9171,
      "Electric": 9172,
      "##vil": 9173,
      "##gna": 9174,
      "161": 9175,
      "Software": 9176,
      "##uo": 9177,
      "Operation": 9178,
      "Delta": 9179,
      "Take": 9180,
      "Solo": 9181,
      "Action": 9182,
      "Drama": 9183,
      "Bas": 9184,
      "Rom": 9185,
      "158": 9186,
      "Sus": 9187,
      "multi": 9188,
      "SBS": 9189,
      "163": 9190,
      "Theory": 9191,
      "SK": 9192,
      "Via": 9193,
      "##lina": 9194,
      "Sean": 9195,
      "PS": 9196,
      "Type": 9197,
      "##gate": 9198,
      "SA": 9199,
      "##bas": 9200,
      "##rst": 9201,
      "##fo": 9202,
      "Ba": 9203,
      "Helen": 9204,
      "Ward": 9205,
      "Grace": 9206,
      "Tower": 9207,
      "Capital": 9208,
      "Sweet": 9209,
      "##や": 9210,
      "Te": 9211,
      "##row": 9212,
      "KBS": 9213,
      "##タ": 9214,
      "Tra": 9215,
      "Ronald": 9216,
      "256": 9217,
      "Round": 9218,
      "Run": 9219,
      "Sex": 9220,
      "##ory": 9221,
      "166": 9222,
      "Future": 9223,
      "##lit": 9224,
      "Nation": 9225,
      "##リア": 9226,
      "Ring": 9227,
      "##tri": 9228,
      "Mart": 9229,
      "164": 9230,
      "252": 9231,
      "##uf": 9232,
      "##ū": 9233,
      "##リ": 9234,
      "176": 9235,
      "Building": 9236,
      "Ban": 9237,
      "162": 9238,
      "Child": 9239,
      "AB": 9240,
      "217": 9241,
      "224": 9242,
      "4000": 9243,
      "Holy": 9244,
      "NATO": 9245,
      "Key": 9246,
      "IBM": 9247,
      "Canton": 9248,
      "##tation": 9249,
      "Hal": 9250,
      "Craig": 9251,
      "206": 9252,
      "NBC": 9253,
      "##lay": 9254,
      "Ouest": 9255,
      "##ilo": 9256,
      "##OS": 9257,
      "Store": 9258,
      "Transport": 9259,
      "Justin": 9260,
      "195": 9261,
      "1780": 9262,
      "Again": 9263,
      "##hir": 9264,
      "1784": 9265,
      "##uro": 9266,
      "235": 9267,
      "##ock": 9268,
      "1787": 9269,
      "208": 9270,
      "##ston": 9271,
      "Agency": 9272,
      "Alliance": 9273,
      "Forum": 9274,
      "##igo": 9275,
      "172": 9276,
      "182": 9277,
      "Plaza": 9278,
      "Bee": 9279,
      "Chi": 9280,
      "##hos": 9281,
      "1783": 9282,
      "cos": 9283,
      "177": 9284,
      "##mont": 9285,
      "Kings": 9286,
      "VF": 9287,
      "Palace": 9288,
      "inter": 9289,
      "212": 9290,
      "Was": 9291,
      "215": 9292,
      "1788": 9293,
      "##fication": 9294,
      "213": 9295,
      "169": 9296,
      "Hope": 9297,
      "##ess": 9298,
      "##elo": 9299,
      "Hell": 9300,
      "202": 9301,
      "Chen": 9302,
      "Youth": 9303,
      "##alo": 9304,
      "##ple": 9305,
      "Works": 9306,
      "WoRMS": 9307,
      "204": 9308,
      "##rf": 9309,
      "##²": 9310,
      "Trust": 9311,
      "Productions": 9312,
      "Kiss": 9313,
      "MM": 9314,
      "Short": 9315,
      "Princess": 9316,
      "380": 9317,
      "##ivi": 9318,
      "Freedom": 9319,
      "Facebook": 9320,
      "188": 9321,
      "Hart": 9322,
      "Kenneth": 9323,
      "Gregory": 9324,
      "##hs": 9325,
      "##カ": 9326,
      "179": 9327,
      "##sco": 9328,
      "340": 9329,
      "Greg": 9330,
      "Player": 9331,
      "##す": 9332,
      "211": 9333,
      "##ome": 9334,
      "ll": 9335,
      "178": 9336,
      "171": 9337,
      "##フ": 9338,
      "Test": 9339,
      "##gent": 9340,
      "183": 9341,
      "##dale": 9342,
      "IATA": 9343,
      "193": 9344,
      "##う": 9345,
      "##com": 9346,
      "181": 9347,
      "NY": 9348,
      "1785": 9349,
      "ID": 9350,
      "TBS": 9351,
      "SP": 9352,
      "##bon": 9353,
      "##ensis": 9354,
      "1776": 9355,
      "##ther": 9356,
      "##20": 9357,
      "##oo": 9358,
      "184": 9359,
      "Bond": 9360,
      "Happy": 9361,
      "Ice": 9362,
      "##rol": 9363,
      "Source": 9364,
      "Fantasy": 9365,
      "222": 9366,
      "##gis": 9367,
      "##bol": 9368,
      "207": 9369,
      "##zon": 9370,
      "174": 9371,
      "Race": 9372,
      "Gene": 9373,
      "Oh": 9374,
      "Mind": 9375,
      "173": 9376,
      "##マ": 9377,
      "Ain": 9378,
      "Wind": 9379,
      "197": 9380,
      "Klein": 9381,
      "##chu": 9382,
      "##ffer": 9383,
      "Senior": 9384,
      "##な": 9385,
      "Heaven": 9386,
      "Uni": 9387,
      "Ted": 9388,
      "AD": 9389,
      "##nau": 9390,
      "Price": 9391,
      "ju": 9392,
      "Xbox": 9393,
      "##asa": 9394,
      "SR": 9395,
      "edu": 9396,
      "wi": 9397,
      "##fort": 9398,
      "SE": 9399,
      "Carol": 9400,
      "Common": 9401,
      "Wu": 9402,
      "Creative": 9403,
      "Sara": 9404,
      "Soc": 9405,
      "Friends": 9406,
      "480": 9407,
      "Amy": 9408,
      "##but": 9409,
      "##ode": 9410,
      "187": 9411,
      "##zan": 9412,
      "##gle": 9413,
      "OF": 9414,
      "Auto": 9415,
      "##uden": 9416,
      "Rain": 9417,
      "186": 9418,
      "Change": 9419,
      "##sha": 9420,
      "Dog": 9421,
      "Sci": 9422,
      "221": 9423,
      "Stein": 9424,
      "199": 9425,
      "silver": 9426,
      "1100": 9427,
      "209": 9428,
      "Generation": 9429,
      "Pink": 9430,
      "Rogers": 9431,
      "##ray": 9432,
      "##km": 9433,
      "198": 9434,
      "Liu": 9435,
      "1786": 9436,
      "1770": 9437,
      "##con": 9438,
      "Right": 9439,
      "Off": 9440,
      "##rah": 9441,
      "Mobile": 9442,
      "##μ": 9443,
      "Where": 9444,
      "1750": 9445,
      "189": 9446,
      "241": 9447,
      "Call": 9448,
      "2020": 9449,
      "191": 9450,
      "Mother": 9451,
      "Cinema": 9452,
      "Abdul": 9453,
      "Full": 9454,
      "Double": 9455,
      "Evolution": 9456,
      "196": 9457,
      "Morning": 9458,
      "216": 9459,
      "Text": 9460,
      "##cum": 9461,
      "HC": 9462,
      "214": 9463,
      "##rim": 9464,
      "226": 9465,
      "MHz": 9466,
      "Lang": 9467,
      "Cole": 9468,
      "Château": 9469,
      "540": 9470,
      "PR": 9471,
      "##oti": 9472,
      "Lu": 9473,
      "Virgin": 9474,
      "NCAA": 9475,
      "thu": 9476,
      "Storm": 9477,
      "275": 9478,
      "##eng": 9479,
      "Adrian": 9480,
      "Organization": 9481,
      "232": 9482,
      "Command": 9483,
      "Hard": 9484,
      "##late": 9485,
      "Car": 9486,
      "##bé": 9487,
      "Pont": 9488,
      "310": 9489,
      "BMW": 9490,
      "Money": 9491,
      "255": 9492,
      "##rch": 9493,
      "##bourg": 9494,
      "Cap": 9495,
      "True": 9496,
      "sg": 9497,
      "##ER": 9498,
      "pi": 9499,
      "IP": 9500,
      "Performance": 9501,
      "##rang": 9502,
      "370": 9503,
      "##can": 9504,
      "Food": 9505,
      "##sma": 9506,
      "##pers": 9507,
      "Link": 9508,
      "##uli": 9509,
      "420": 9510,
      "Know": 9511,
      "Got": 9512,
      "Twitter": 9513,
      "##light": 9514,
      "acid": 9515,
      "Industrial": 9516,
      "##lk": 9517,
      "458": 9518,
      "AM": 9519,
      "##bis": 9520,
      "Aaron": 9521,
      "Sub": 9522,
      "Inter": 9523,
      "Living": 9524,
      "238": 9525,
      "223": 9526,
      "Palazzo": 9527,
      "##anti": 9528,
      "Tor": 9529,
      "Bang": 9530,
      "Alt": 9531,
      "Tal": 9532,
      "##aro": 9533,
      "Shah": 9534,
      "194": 9535,
      "Spirit": 9536,
      "1774": 9537,
      "1782": 9538,
      "CEO": 9539,
      "##day": 9540,
      "218": 9541,
      "Say": 9542,
      "MC": 9543,
      "440": 9544,
      "Face": 9545,
      "##nsis": 9546,
      "CA": 9547,
      "Pat": 9548,
      "Next": 9549,
      "##12": 9550,
      "##win": 9551,
      "Ville": 9552,
      "Rev": 9553,
      "##book": 9554,
      "Why": 9555,
      "1772": 9556,
      "1778": 9557,
      "##él": 9558,
      "##wick": 9559,
      "##ote": 9560,
      "2500": 9561,
      "Voice": 9562,
      "Fine": 9563,
      "Map": 9564,
      "Have": 9565,
      "##rri": 9566,
      "248": 9567,
      "Col": 9568,
      "850": 9569,
      "##TA": 9570,
      "1781": 9571,
      "234": 9572,
      "IF": 9573,
      "1777": 9574,
      "##bot": 9575,
      "231": 9576,
      "archive": 9577,
      "##ES": 9578,
      "Cat": 9579,
      "DE": 9580,
      "##ws": 9581,
      "mini": 9582,
      "312": 9583,
      "305": 9584,
      "253": 9585,
      "##oc": 9586,
      "Ya": 9587,
      "Stage": 9588,
      "Diamond": 9589,
      "Andre": 9590,
      "##お": 9591,
      "super": 9592,
      "Total": 9593,
      "Drive": 9594,
      "Week": 9595,
      "GP": 9596,
      "Toulouse": 9597,
      "Legend": 9598,
      "##lea": 9599,
      "##yu": 9600,
      "##mbo": 9601,
      "CC": 9602,
      "##lash": 9603,
      "##lic": 9604,
      "Convention": 9605,
      "239": 9606,
      "264": 9607,
      "227": 9608,
      "Tel": 9609,
      "365": 9610,
      "##tha": 9611,
      "375": 9612,
      "Hunt": 9613,
      "##ば": 9614,
      "##dge": 9615,
      "Ka": 9616,
      "SV": 9617,
      "ro": 9618,
      "Ad": 9619,
      "265": 9620,
      "Flight": 9621,
      "1773": 9622,
      "262": 9623,
      "##hou": 9624,
      "Wing": 9625,
      "Crown": 9626,
      "Nat": 9627,
      "Tai": 9628,
      "##gra": 9629,
      "Work": 9630,
      "228": 9631,
      "##omo": 9632,
      "Jessica": 9633,
      "520": 9634,
      "##oh": 9635,
      "##board": 9636,
      "Fair": 9637,
      "mg": 9638,
      "##ティ": 9639,
      "##eh": 9640,
      "243": 9641,
      "##fs": 9642,
      "##rom": 9643,
      "Tree": 9644,
      "233": 9645,
      "325": 9646,
      "245": 9647,
      "219": 9648,
      "Nie": 9649,
      "1760": 9650,
      "Tiger": 9651,
      "background": 9652,
      "##ugh": 9653,
      "cal": 9654,
      "313": 9655,
      "##hem": 9656,
      "1763": 9657,
      "##star": 9658,
      "##key": 9659,
      "Android": 9660,
      "Ca": 9661,
      "Sr": 9662,
      "Server": 9663,
      "295": 9664,
      "##gre": 9665,
      "Defense": 9666,
      "306": 9667,
      "251": 9668,
      "##ew": 9669,
      "Beyond": 9670,
      "Mine": 9671,
      "Ghost": 9672,
      "002": 9673,
      "Zero": 9674,
      "Jun": 9675,
      "##rts": 9676,
      "229": 9677,
      "ap": 9678,
      "301": 9679,
      "##pper": 9680,
      "beta": 9681,
      "##dro": 9682,
      "254": 9683,
      "Concert": 9684,
      "430": 9685,
      "304": 9686,
      "Anti": 9687,
      "##cation": 9688,
      "##orn": 9689,
      "236": 9690,
      "Hai": 9691,
      "Dio": 9692,
      "Intel": 9693,
      "Kai": 9694,
      "##ake": 9695,
      "int": 9696,
      "Track": 9697,
      "410": 9698,
      "##aw": 9699,
      "246": 9700,
      "Training": 9701,
      "Gil": 9702,
      "hu": 9703,
      "Room": 9704,
      "Pascal": 9705,
      "249": 9706,
      "Hero": 9707,
      "##つ": 9708,
      "UN": 9709,
      "##イン": 9710,
      "Luc": 9711,
      "Belle": 9712,
      "Tang": 9713,
      "Stan": 9714,
      "##stic": 9715,
      "Kecamatan": 9716,
      "272": 9717,
      "Make": 9718,
      "Advanced": 9719,
      "Far": 9720,
      "Fund": 9721,
      "307": 9722,
      "Beautiful": 9723,
      "1768": 9724,
      "003": 9725,
      "##the": 9726,
      "Pa": 9727,
      "iTunes": 9728,
      "IT": 9729,
      "257": 9730,
      "##ffe": 9731,
      "##mb": 9732,
      "639": 9733,
      "Edge": 9734,
      "MW": 9735,
      "##zation": 9736,
      "##mic": 9737,
      "##ま": 9738,
      "271": 9739,
      "##pon": 9740,
      "Berger": 9741,
      "##IN": 9742,
      "##SA": 9743,
      "Lion": 9744,
      "Que": 9745,
      "Sala": 9746,
      "sq": 9747,
      "303": 9748,
      "##gni": 9749,
      "Start": 9750,
      "237": 9751,
      "##tory": 9752,
      "##chy": 9753,
      "MP": 9754,
      "ray": 9755,
      "Vista": 9756,
      "333": 9757,
      "FBI": 9758,
      "MA": 9759,
      "##gno": 9760,
      "460": 9761,
      "242": 9762,
      "Tam": 9763,
      "1779": 9764,
      "EC": 9765,
      "Angela": 9766,
      "1740": 9767,
      "288": 9768,
      "Communications": 9769,
      "##ware": 9770,
      "EMI": 9771,
      "1753": 9772,
      "##dle": 9773,
      "285": 9774,
      "Hay": 9775,
      "Search": 9776,
      "##ight": 9777,
      "##cm": 9778,
      "##chia": 9779,
      "##eon": 9780,
      "Us": 9781,
      "SD": 9782,
      "244": 9783,
      "Chan": 9784,
      "Bo": 9785,
      "CV": 9786,
      "##yl": 9787,
      "Alpha": 9788,
      "315": 9789,
      "Ex": 9790,
      "##rich": 9791,
      "Too": 9792,
      "##cre": 9793,
      "##れ": 9794,
      "##け": 9795,
      "Shadow": 9796,
      "##low": 9797,
      "##put": 9798,
      "dis": 9799,
      "WTA": 9800,
      "Rich": 9801,
      "DL": 9802,
      "F1": 9803,
      "Amazon": 9804,
      "GT": 9805,
      "247": 9806,
      "Eagle": 9807,
      "##gor": 9808,
      "##cc": 9809,
      "Forever": 9810,
      "1660": 9811,
      "Mk": 9812,
      "406": 9813,
      "##ph": 9814,
      "1648": 9815,
      "VL": 9816,
      "Vor": 9817,
      "DS": 9818,
      "##sso": 9819,
      "Kids": 9820,
      "Snow": 9821,
      "Professional": 9822,
      "Fast": 9823,
      "##cci": 9824,
      "##だ": 9825,
      "##ith": 9826,
      "Ja": 9827,
      "Min": 9828,
      "##rti": 9829,
      "Circle": 9830,
      "Jin": 9831,
      "390": 9832,
      "Nu": 9833,
      "Ada": 9834,
      "##ssi": 9835,
      "Market": 9836,
      "273": 9837,
      "##こ": 9838,
      "Crystal": 9839,
      "266": 9840,
      "Movement": 9841,
      "Flash": 9842,
      "Chang": 9843,
      "323": 9844,
      "Eye": 9845,
      "##ex": 9846,
      "268": 9847,
      "##°C": 9848,
      "263": 9849,
      "302": 9850,
      "Walk": 9851,
      "##rot": 9852,
      "Mill": 9853,
      "Beat": 9854,
      "6000": 9855,
      "##cket": 9856,
      "1771": 9857,
      "286": 9858,
      "st": 9859,
      "Low": 9860,
      "282": 9861,
      "##オ": 9862,
      "1766": 9863,
      "1769": 9864,
      "##50": 9865,
      "##sca": 9866,
      "276": 9867,
      "Travel": 9868,
      "##xt": 9869,
      "277": 9870,
      "Brand": 9871,
      "##ID": 9872,
      "Block": 9873,
      "274": 9874,
      "1765": 9875,
      "Ki": 9876,
      "Mass": 9877,
      "Phi": 9878,
      "Pe": 9879,
      "Ti": 9880,
      "1767": 9881,
      "LA": 9882,
      "261": 9883,
      "AU": 9884,
      "Tell": 9885,
      "##ブ": 9886,
      "1650": 9887,
      "##onne": 9888,
      "284": 9889,
      "Kun": 9890,
      "Stop": 9891,
      "281": 9892,
      "##π": 9893,
      "258": 9894,
      "470": 9895,
      "Enterprise": 9896,
      "Ing": 9897,
      "287": 9898,
      "Ph": 9899,
      "Brad": 9900,
      "##hm": 9901,
      "1762": 9902,
      "278": 9903,
      "Nokia": 9904,
      "338": 9905,
      "##war": 9906,
      "297": 9907,
      "292": 9908,
      "Bus": 9909,
      "1764": 9910,
      "Cell": 9911,
      "Mail": 9912,
      "560": 9913,
      "CF": 9914,
      "259": 9915,
      "##yne": 9916,
      "Train": 9917,
      "Trans": 9918,
      "OH": 9919,
      "308": 9920,
      "Vita": 9921,
      "MB": 9922,
      "formula": 9923,
      "LL": 9924,
      "##ree": 9925,
      "321": 9926,
      "Galaxy": 9927,
      "267": 9928,
      "##rme": 9929,
      "269": 9930,
      "311": 9931,
      "336": 9932,
      "##TE": 9933,
      "Rat": 9934,
      "283": 9935,
      "##idi": 9936,
      "Watch": 9937,
      "ri": 9938,
      "512": 9939,
      "Made": 9940,
      "ICAO": 9941,
      "Fl": 9942,
      "##RA": 9943,
      "950": 9944,
      "##vert": 9945,
      "Pau": 9946,
      "##ank": 9947,
      "##II": 9948,
      "Gay": 9949,
      "Lou": 9950,
      "1730": 9951,
      "##ror": 9952,
      "##ON": 9953,
      "Bon": 9954,
      "Ur": 9955,
      "Fan": 9956,
      "640": 9957,
      "Yellow": 9958,
      "A1": 9959,
      "Ko": 9960,
      "##lee": 9961,
      "pH": 9962,
      "Triple": 9963,
      "Need": 9964,
      "##レ": 9965,
      "##avi": 9966,
      "335": 9967,
      "1755": 9968,
      "##chus": 9969,
      "345": 9970,
      "##ead": 9971,
      "##IP": 9972,
      "316": 9973,
      "##AC": 9974,
      "PT": 9975,
      "wiki": 9976,
      "AA": 9977,
      "299": 9978,
      "Ni": 9979,
      "1720": 9980,
      "Bio": 9981,
      "395": 9982,
      "293": 9983,
      "##try": 9984,
      "279": 9985,
      "1640": 9986,
      "##view": 9987,
      "gr": 9988,
      "AT": 9989,
      "Tan": 9990,
      "Pass": 9991,
      "Rod": 9992,
      "Monster": 9993,
      "##pre": 9994,
      "##pra": 9995,
      "Jam": 9996,
      "Yo": 9997,
      "309": 9998,
      "318": 9999,
      "331": 10000,
      "##MA": 10001,
      "##rop": 10002,
      "##oro": 10003,
      "Raw": 10004,
      "Gate": 10005,
      "324": 10006,
      "Glen": 10007,
      "Financial": 10008,
      "##ress": 10009,
      "Faith": 10010,
      "##nay": 10011,
      "GNU": 10012,
      "View": 10013,
      "Rus": 10014,
      "Pri": 10015,
      "Ji": 10016,
      "347": 10017,
      "HIV": 10018,
      "##ち": 10019,
      "##IC": 10020,
      "AP": 10021,
      "319": 10022,
      "Amb": 10023,
      "Every": 10024,
      "Tre": 10025,
      "Kill": 10026,
      "Speed": 10027,
      "317": 10028,
      "Mus": 10029,
      "322": 10030,
      "1759": 10031,
      "CE": 10032,
      "##play": 10033,
      "Sid": 10034,
      "Sang": 10035,
      "CNN": 10036,
      "Wii": 10037,
      "Arrondissement": 10038,
      "Bi": 10039,
      "Electronic": 10040,
      "##fra": 10041,
      "##ob": 10042,
      "Hello": 10043,
      "##lai": 10044,
      "URL": 10045,
      "Gang": 10046,
      "##nch": 10047,
      "291": 10048,
      "Rai": 10049,
      "296": 10050,
      "EN": 10051,
      "Mad": 10052,
      "Gun": 10053,
      "Lei": 10054,
      "##rag": 10055,
      "MVP": 10056,
      "##cast": 10057,
      "MIT": 10058,
      "##ツ": 10059,
      "352": 10060,
      "Zo": 10061,
      "##sc": 10062,
      "428": 10063,
      "Chu": 10064,
      "404": 10065,
      "298": 10066,
      "570": 10067,
      "385": 10068,
      "##hel": 10069,
      "369": 10070,
      "1756": 10071,
      "471": 10072,
      "Thing": 10073,
      "##キ": 10074,
      "Suite": 10075,
      "Bear": 10076,
      "RNA": 10077,
      "##ax": 10078,
      "737": 10079,
      "##kra": 10080,
      "RCA": 10081,
      "328": 10082,
      "Vi": 10083,
      "Vision": 10084,
      "Wonder": 10085,
      "1757": 10086,
      "Mari": 10087,
      "Bella": 10088,
      "1761": 10089,
      "332": 10090,
      "530": 10091,
      "##ox": 10092,
      "##tron": 10093,
      "##cto": 10094,
      "289": 10095,
      "##AL": 10096,
      "Talk": 10097,
      "343": 10098,
      "Cathedral": 10099,
      "##omi": 10100,
      "314": 10101,
      "Motion": 10102,
      "##hill": 10103,
      "##bri": 10104,
      "Res": 10105,
      "##AT": 10106,
      "##emi": 10107,
      "MD": 10108,
      "##48": 10109,
      "##hara": 10110,
      "ESPN": 10111,
      "##vid": 10112,
      "##edi": 10113,
      "Hit": 10114,
      "337": 10115,
      "##nea": 10116,
      "GB": 10117,
      "Till": 10118,
      "Vale": 10119,
      "PA": 10120,
      "405": 10121,
      "Ost": 10122,
      "Exchange": 10123,
      "490": 10124,
      "384": 10125,
      "##GB": 10126,
      "Bro": 10127,
      "326": 10128,
      "Gen": 10129,
      "Net": 10130,
      "401": 10131,
      "##US": 10132,
      "##hol": 10133,
      "sp": 10134,
      "##gun": 10135,
      "1680": 10136,
      "387": 10137,
      "WC": 10138,
      "##urus": 10139,
      "Joy": 10140,
      "412": 10141,
      "##hall": 10142,
      "##rain": 10143,
      "##30": 10144,
      "393": 10145,
      "1745": 10146,
      "##gil": 10147,
      "Excel": 10148,
      "Sy": 10149,
      "1550": 10150,
      "1754": 10151,
      "##sai": 10152,
      "Mini": 10153,
      "##cel": 10154,
      "##qua": 10155,
      "CO": 10156,
      "##ST": 10157,
      "Lai": 10158,
      "RS": 10159,
      "1715": 10160,
      "294": 10161,
      "Ground": 10162,
      "##ack": 10163,
      "HK": 10164,
      "355": 10165,
      "1630": 10166,
      "##mur": 10167,
      "580": 10168,
      "1620": 10169,
      "356": 10170,
      "367": 10171,
      "##rp": 10172,
      "1710": 10173,
      "##card": 10174,
      "610": 10175,
      "PP": 10176,
      "425": 10177,
      "##udo": 10178,
      "##チ": 10179,
      "1748": 10180,
      "354": 10181,
      "Abd": 10182,
      "Rue": 10183,
      "357": 10184,
      "##rid": 10185,
      "##oid": 10186,
      "##ウ": 10187,
      "747": 10188,
      "##dai": 10189,
      "##wall": 10190,
      "##master": 10191,
      "STS": 10192,
      "Gill": 10193,
      "##had": 10194,
      "Av": 10195,
      "##ED": 10196,
      "416": 10197,
      "Bart": 10198,
      "##old": 10199,
      "Visual": 10200,
      "Levi": 10201,
      "Fr": 10202,
      "##OW": 10203,
      "Cry": 10204,
      "329": 10205,
      "Ch": 10206,
      "##DS": 10207,
      "334": 10208,
      "br": 10209,
      "368": 10210,
      "630": 10211,
      "##NG": 10212,
      "501": 10213,
      "##box": 10214,
      "Blu": 10215,
      "Perfect": 10216,
      "344": 10217,
      "Explorer": 10218,
      "951": 10219,
      "##sper": 10220,
      "Rainbow": 10221,
      "327": 10222,
      "Hip": 10223,
      "##17": 10224,
      "Tech": 10225,
      "1751": 10226,
      "Thunder": 10227,
      "Stella": 10228,
      "##ear": 10229,
      "##mun": 10230,
      "Word": 10231,
      "mon": 10232,
      "411": 10233,
      "Cu": 10234,
      "SG": 10235,
      "Table": 10236,
      "342": 10237,
      "1707": 10238,
      "451": 10239,
      "Basic": 10240,
      "Fly": 10241,
      "351": 10242,
      "HTML": 10243,
      "Style": 10244,
      "pu": 10245,
      "Rail": 10246,
      "1714": 10247,
      "Kara": 10248,
      "1580": 10249,
      "##bur": 10250,
      "Fou": 10251,
      "601": 10252,
      "Care": 10253,
      "Formation": 10254,
      "##ノ": 10255,
      "1741": 10256,
      "Touch": 10257,
      "339": 10258,
      "Nem": 10259,
      "Lot": 10260,
      "Gas": 10261,
      "1690": 10262,
      "##pal": 10263,
      "510": 10264,
      "NK": 10265,
      "Mo": 10266,
      "1752": 10267,
      "AE": 10268,
      "##RO": 10269,
      "Sand": 10270,
      "##qa": 10271,
      "953": 10272,
      "Palm": 10273,
      "##lau": 10274,
      "##lf": 10275,
      "802": 10276,
      "Lin": 10277,
      "##mbe": 10278,
      "Factory": 10279,
      "1735": 10280,
      "##ail": 10281,
      "Pre": 10282,
      "1520": 10283,
      "##mor": 10284,
      "USB": 10285,
      "Ei": 10286,
      "Image": 10287,
      "525": 10288,
      "486": 10289,
      "##quin": 10290,
      "Beauty": 10291,
      "625": 10292,
      "1610": 10293,
      "Dar": 10294,
      "353": 10295,
      "381": 10296,
      "359": 10297,
      "##ダ": 10298,
      "Hop": 10299,
      "1689": 10300,
      "##lp": 10301,
      "Cher": 10302,
      "Wong": 10303,
      "1670": 10304,
      "363": 10305,
      "366": 10306,
      "IGN": 10307,
      "1701": 10308,
      "1742": 10309,
      "383": 10310,
      "Mega": 10311,
      "361": 10312,
      "417": 10313,
      "##グ": 10314,
      "Ek": 10315,
      "##run": 10316,
      "720": 10317,
      "##EC": 10318,
      "1743": 10319,
      "1688": 10320,
      "Shin": 10321,
      "407": 10322,
      "Qui": 10323,
      "680": 10324,
      "1746": 10325,
      "Hey": 10326,
      "620": 10327,
      "341": 10328,
      "007": 10329,
      "1713": 10330,
      "##IA": 10331,
      "Ming": 10332,
      "##BA": 10333,
      "1683": 10334,
      "476": 10335,
      "1749": 10336,
      "Memory": 10337,
      "##nor": 10338,
      "##lock": 10339,
      "Metacritic": 10340,
      "B2": 10341,
      "590": 10342,
      "403": 10343,
      "1723": 10344,
      "432": 10345,
      "##SC": 10346,
      "431": 10347,
      "1747": 10348,
      "1744": 10349,
      "##hra": 10350,
      "465": 10351,
      "IEEE": 10352,
      "1721": 10353,
      "IN": 10354,
      "VS": 10355,
      "456": 10356,
      "##DA": 10357,
      "Audi": 10358,
      "402": 10359,
      "Arc": 10360,
      "Sing": 10361,
      "DOS": 10362,
      "Fi": 10363,
      "1492": 10364,
      "EE": 10365,
      "423": 10366,
      "##uil": 10367,
      "Thor": 10368,
      "##vig": 10369,
      "##AM": 10370,
      "##TS": 10371,
      "1530": 10372,
      "Tri": 10373,
      "##え": 10374,
      "Inn": 10375,
      "1718": 10376,
      "528": 10377,
      "Evan": 10378,
      "348": 10379,
      "AK": 10380,
      "##NA": 10381,
      "Turn": 10382,
      "##tero": 10383,
      "1570": 10384,
      "##EA": 10385,
      "1540": 10386,
      "##won": 10387,
      "Twin": 10388,
      "1667": 10389,
      "ISTAT": 10390,
      "960": 10391,
      "1736": 10392,
      "1603": 10393,
      "435": 10394,
      "408": 10395,
      "376": 10396,
      "Oak": 10397,
      "1727": 10398,
      "1685": 10399,
      "8000": 10400,
      "##TP": 10401,
      "346": 10402,
      "1560": 10403,
      "Color": 10404,
      "##ush": 10405,
      "364": 10406,
      "##rog": 10407,
      "670": 10408,
      "Samsung": 10409,
      "##OM": 10410,
      "1725": 10411,
      "1632": 10412,
      "1711": 10413,
      "##11": 10414,
      "##め": 10415,
      "##fre": 10416,
      "Jump": 10417,
      "Audio": 10418,
      "iPhone": 10419,
      "##IO": 10420,
      "386": 10421,
      "1739": 10422,
      "trans": 10423,
      "1642": 10424,
      "##mini": 10425,
      "379": 10426,
      "##top": 10427,
      "362": 10428,
      "##16": 10429,
      "382": 10430,
      "Dem": 10431,
      "Kay": 10432,
      "NS": 10433,
      "Wei": 10434,
      "##ān": 10435,
      "373": 10436,
      "Level": 10437,
      "nm": 10438,
      "##bird": 10439,
      "Comic": 10440,
      "1737": 10441,
      "Sugar": 10442,
      "660": 10443,
      "371": 10444,
      "PhD": 10445,
      "##15": 10446,
      "A2": 10447,
      "1724": 10448,
      "HP": 10449,
      "378": 10450,
      "Cheng": 10451,
      "1654": 10452,
      "1672": 10453,
      "##pha": 10454,
      "##pot": 10455,
      "##IT": 10456,
      "##cro": 10457,
      "429": 10458,
      "349": 10459,
      "DB": 10460,
      "409": 10461,
      "7000": 10462,
      "##wl": 10463,
      "1709": 10464,
      "414": 10465,
      "1722": 10466,
      "1728": 10467,
      "358": 10468,
      "1002": 10469,
      "##vir": 10470,
      "Save": 10471,
      "IL": 10472,
      "##hai": 10473,
      "999": 10474,
      "394": 10475,
      "427": 10476,
      "399": 10477,
      "Mode": 10478,
      "##lou": 10479,
      "1733": 10480,
      "##craft": 10481,
      "392": 10482,
      "##AS": 10483,
      "1661": 10484,
      "Card": 10485,
      "Proc": 10486,
      "475": 10487,
      "##40": 10488,
      "Break": 10489,
      "453": 10490,
      "Tak": 10491,
      "1590": 10492,
      "WM": 10493,
      "691": 10494,
      "1732": 10495,
      "SF": 10496,
      "388": 10497,
      "GPS": 10498,
      "1598": 10499,
      "Pi": 10500,
      "442": 10501,
      "##FA": 10502,
      "##ろ": 10503,
      "gi": 10504,
      "911": 10505,
      "1717": 10506,
      "Cloud": 10507,
      "Gaga": 10508,
      "##AP": 10509,
      "Pol": 10510,
      "EA": 10511,
      "##lex": 10512,
      "Br": 10513,
      "1618": 10514,
      "397": 10515,
      "sl": 10516,
      "1708": 10517,
      "Ra": 10518,
      "1704": 10519,
      "666": 10520,
      "377": 10521,
      "HBO": 10522,
      "448": 10523,
      "Core": 10524,
      "421": 10525,
      "##gea": 10526,
      "372": 10527,
      "Yahoo": 10528,
      "MG": 10529,
      "SH": 10530,
      "KM": 10531,
      "1625": 10532,
      "1250": 10533,
      "##tch": 10534,
      "422": 10535,
      "1621": 10536,
      "455": 10537,
      "1699": 10538,
      "A4": 10539,
      "##IL": 10540,
      "iOS": 10541,
      "1734": 10542,
      "Ruby": 10543,
      "374": 10544,
      "1738": 10545,
      "##BC": 10546,
      "RP": 10547,
      "##ope": 10548,
      "##プ": 10549,
      "##SE": 10550,
      "##GA": 10551,
      "meta": 10552,
      "##rite": 10553,
      "473": 10554,
      "Ham": 10555,
      "CPU": 10556,
      "##char": 10557,
      "##hale": 10558,
      "1703": 10559,
      "##hic": 10560,
      "Grenoble": 10561,
      "##ミ": 10562,
      "Piazza": 10563,
      "413": 10564,
      "V8": 10565,
      "##OL": 10566,
      "1675": 10567,
      "Wave": 10568,
      "Than": 10569,
      "Gent": 10570,
      "##RS": 10571,
      "Mon": 10572,
      "1521": 10573,
      "mol": 10574,
      "1609": 10575,
      "##bh": 10576,
      "Vic": 10577,
      "LGBT": 10578,
      "1702": 10579,
      "RAM": 10580,
      "##qui": 10581,
      "426": 10582,
      "SI": 10583,
      "1666": 10584,
      "604": 10585,
      "1605": 10586,
      "Lie": 10587,
      "##ink": 10588,
      "1697": 10589,
      "469": 10590,
      "Ser": 10591,
      "1649": 10592,
      "CH": 10593,
      "1450": 10594,
      "##hor": 10595,
      "D1": 10596,
      "Easy": 10597,
      "##14": 10598,
      "VHS": 10599,
      "472": 10600,
      "Jet": 10601,
      "1665": 10602,
      "1712": 10603,
      "Vocal": 10604,
      "Close": 10605,
      "Fin": 10606,
      "BA": 10607,
      "508": 10608,
      "1635": 10609,
      "Anime": 10610,
      "RFC": 10611,
      "Mel": 10612,
      "389": 10613,
      "CP": 10614,
      "RC": 10615,
      "1719": 10616,
      "GM": 10617,
      "##eed": 10618,
      "1655": 10619,
      "IS": 10620,
      "1525": 10621,
      "##dri": 10622,
      "Cool": 10623,
      "1716": 10624,
      "464": 10625,
      "396": 10626,
      "Access": 10627,
      "518": 10628,
      "1572": 10629,
      "Ant": 10630,
      "##cra": 10631,
      "391": 10632,
      "Beta": 10633,
      "1729": 10634,
      "1643": 10635,
      "1658": 10636,
      "##fish": 10637,
      "Yi": 10638,
      "505": 10639,
      "1731": 10640,
      "Interactive": 10641,
      "Brain": 10642,
      "760": 10643,
      "424": 10644,
      "Yes": 10645,
      "446": 10646,
      "1706": 10647,
      "Nas": 10648,
      "##oll": 10649,
      "##hit": 10650,
      "1536": 10651,
      "511": 10652,
      "Ace": 10653,
      "1629": 10654,
      "1526": 10655,
      "##ript": 10656,
      "437": 10657,
      "##CD": 10658,
      "1645": 10659,
      "499": 10660,
      "1634": 10661,
      "444": 10662,
      "1705": 10663,
      "445": 10664,
      "ROM": 10665,
      "Gare": 10666,
      "1726": 10667,
      "1676": 10668,
      "MV": 10669,
      "1111": 10670,
      "438": 10671,
      "1622": 10672,
      "cat": 10673,
      "AJ": 10674,
      "515": 10675,
      "##AN": 10676,
      "Cal": 10677,
      "Complex": 10678,
      "##lab": 10679,
      "1623": 10680,
      "441": 10681,
      "1664": 10682,
      "Ver": 10683,
      "##ュー": 10684,
      "1612": 10685,
      "Clermont": 10686,
      "1656": 10687,
      "880": 10688,
      "1086": 10689,
      "1638": 10690,
      "Legacy": 10691,
      "##HC": 10692,
      "GO": 10693,
      "##case": 10694,
      "963": 10695,
      "418": 10696,
      "NET": 10697,
      "Step": 10698,
      "1652": 10699,
      "Virtual": 10700,
      "485": 10701,
      "Eu": 10702,
      "1682": 10703,
      "Sm": 10704,
      "Pier": 10705,
      "##hoe": 10706,
      "608": 10707,
      "##IM": 10708,
      "##bian": 10709,
      "Ever": 10710,
      "1651": 10711,
      "##FC": 10712,
      "452": 10713,
      "##WA": 10714,
      "780": 10715,
      "Mid": 10716,
      "1350": 10717,
      "1493": 10718,
      "419": 10719,
      "Syn": 10720,
      "Keep": 10721,
      "1585": 10722,
      "1616": 10723,
      "##ME": 10724,
      "1569": 10725,
      "Bert": 10726,
      "496": 10727,
      "##lec": 10728,
      "##â": 10729,
      "BD": 10730,
      "##OR": 10731,
      "1627": 10732,
      "##eas": 10733,
      "1385": 10734,
      "1662": 10735,
      "CM": 10736,
      "Rama": 10737,
      "Sega": 10738,
      "575": 10739,
      "CS": 10740,
      "447": 10741,
      "Ram": 10742,
      "840": 10743,
      "1698": 10744,
      "457": 10745,
      "1695": 10746,
      "443": 10747,
      "Ob": 10748,
      "1687": 10749,
      "1668": 10750,
      "##cin": 10751,
      "504": 10752,
      "Neo": 10753,
      "##rome": 10754,
      "1619": 10755,
      "1659": 10756,
      "1628": 10757,
      "##CE": 10758,
      "534": 10759,
      "1626": 10760,
      "Mir": 10761,
      "1611": 10762,
      "##ffa": 10763,
      "##odo": 10764,
      "shell": 10765,
      "398": 10766,
      "1641": 10767,
      "LIVE": 10768,
      "##press": 10769,
      "433": 10770,
      "439": 10771,
      "BS": 10772,
      "1686": 10773,
      "1636": 10774,
      "1669": 10775,
      "1678": 10776,
      "1604": 10777,
      "1679": 10778,
      "LC": 10779,
      "436": 10780,
      "FN": 10781,
      "1637": 10782,
      "Hu": 10783,
      "1595": 10784,
      "1555": 10785,
      "Engine": 10786,
      "##roni": 10787,
      "##ガ": 10788,
      "##uc": 10789,
      "##zier": 10790,
[...]
